{
    "\\x00": 1,
    "\\x01": 2,
    "\\x02": 3,
    "\\x03": 4,
    "\\x04": 5,
    "\\x05": 6,
    "\\x06": 7,
    "\\x07": 8,
    "\\x08": 9,
    "\\t": 10,
    "\\n": 11,
    "\\x0b": 12,
    "\\x0c": 13,
    "\\r": 14,
    "\\x0e": 15,
    "\\x0f": 16,
    "\\x10": 17,
    "\\x11": 18,
    "\\x12": 19,
    "\\x13": 20,
    "\\x14": 21,
    "\\x15": 22,
    "\\x16": 23,
    "\\x17": 24,
    "\\x18": 25,
    "\\x19": 26,
    "\\x1a": 27,
    "\\x1b": 28,
    "\\x1c": 29,
    "\\x1d": 30,
    "\\x1e": 31,
    "\\x1f": 32,
    " ": 33,
    "!": 34,
    "\"": 35,
    "#": 36,
    "$": 37,
    "%": 38,
    "&": 39,
    "'": 40,
    "(": 41,
    ")": 42,
    "*": 43,
    "+": 44,
    ",": 45,
    "-": 46,
    ".": 47,
    "/": 48,
    "0": 49,
    "1": 50,
    "2": 51,
    "3": 52,
    "4": 53,
    "5": 54,
    "6": 55,
    "7": 56,
    "8": 57,
    "9": 58,
    ":": 59,
    ";": 60,
    "<": 61,
    "=": 62,
    ">": 63,
    "?": 64,
    "@": 65,
    "A": 66,
    "B": 67,
    "C": 68,
    "D": 69,
    "E": 70,
    "F": 71,
    "G": 72,
    "H": 73,
    "I": 74,
    "J": 75,
    "K": 76,
    "L": 77,
    "M": 78,
    "N": 79,
    "O": 80,
    "P": 81,
    "Q": 82,
    "R": 83,
    "S": 84,
    "T": 85,
    "U": 86,
    "V": 87,
    "W": 88,
    "X": 89,
    "Y": 90,
    "Z": 91,
    "[": 92,
    "\\\\": 93,
    "]": 94,
    "^": 95,
    "_": 96,
    "`": 97,
    "a": 98,
    "b": 99,
    "c": 100,
    "d": 101,
    "e": 102,
    "f": 103,
    "g": 104,
    "h": 105,
    "i": 106,
    "j": 107,
    "k": 108,
    "l": 109,
    "m": 110,
    "n": 111,
    "o": 112,
    "p": 113,
    "q": 114,
    "r": 115,
    "s": 116,
    "t": 117,
    "u": 118,
    "v": 119,
    "w": 120,
    "x": 121,
    "y": 122,
    "z": 123,
    "{": 124,
    "|": 125,
    "}": 126,
    "~": 127,
    "\\x7f": 128,
    "b'\\x80'": 129,
    "b'\\x81'": 130,
    "b'\\x82'": 131,
    "b'\\x83'": 132,
    "b'\\x84'": 133,
    "b'\\x85'": 134,
    "b'\\x86'": 135,
    "b'\\x87'": 136,
    "b'\\x88'": 137,
    "b'\\x89'": 138,
    "b'\\x8a'": 139,
    "b'\\x8b'": 140,
    "b'\\x8c'": 141,
    "b'\\x8d'": 142,
    "b'\\x8e'": 143,
    "b'\\x8f'": 144,
    "b'\\x90'": 145,
    "b'\\x91'": 146,
    "b'\\x92'": 147,
    "b'\\x93'": 148,
    "b'\\x94'": 149,
    "b'\\x95'": 150,
    "b'\\x96'": 151,
    "b'\\x97'": 152,
    "b'\\x98'": 153,
    "b'\\x99'": 154,
    "b'\\x9a'": 155,
    "b'\\x9b'": 156,
    "b'\\x9c'": 157,
    "b'\\x9d'": 158,
    "b'\\x9e'": 159,
    "b'\\x9f'": 160,
    "b'\\xa0'": 161,
    "b'\\xa1'": 162,
    "b'\\xa2'": 163,
    "b'\\xa3'": 164,
    "b'\\xa4'": 165,
    "b'\\xa5'": 166,
    "b'\\xa6'": 167,
    "b'\\xa7'": 168,
    "b'\\xa8'": 169,
    "b'\\xa9'": 170,
    "b'\\xaa'": 171,
    "b'\\xab'": 172,
    "b'\\xac'": 173,
    "b'\\xad'": 174,
    "b'\\xae'": 175,
    "b'\\xaf'": 176,
    "b'\\xb0'": 177,
    "b'\\xb1'": 178,
    "b'\\xb2'": 179,
    "b'\\xb3'": 180,
    "b'\\xb4'": 181,
    "b'\\xb5'": 182,
    "b'\\xb6'": 183,
    "b'\\xb7'": 184,
    "b'\\xb8'": 185,
    "b'\\xb9'": 186,
    "b'\\xba'": 187,
    "b'\\xbb'": 188,
    "b'\\xbc'": 189,
    "b'\\xbd'": 190,
    "b'\\xbe'": 191,
    "b'\\xbf'": 192,
    "b'\\xc0'": 193,
    "b'\\xc1'": 194,
    "b'\\xc2'": 195,
    "b'\\xc3'": 196,
    "b'\\xc4'": 197,
    "b'\\xc5'": 198,
    "b'\\xc6'": 199,
    "b'\\xc7'": 200,
    "b'\\xc8'": 201,
    "b'\\xc9'": 202,
    "b'\\xca'": 203,
    "b'\\xcb'": 204,
    "b'\\xcc'": 205,
    "b'\\xcd'": 206,
    "b'\\xce'": 207,
    "b'\\xcf'": 208,
    "b'\\xd0'": 209,
    "b'\\xd1'": 210,
    "b'\\xd2'": 211,
    "b'\\xd3'": 212,
    "b'\\xd4'": 213,
    "b'\\xd5'": 214,
    "b'\\xd6'": 215,
    "b'\\xd7'": 216,
    "b'\\xd8'": 217,
    "b'\\xd9'": 218,
    "b'\\xda'": 219,
    "b'\\xdb'": 220,
    "b'\\xdc'": 221,
    "b'\\xdd'": 222,
    "b'\\xde'": 223,
    "b'\\xdf'": 224,
    "b'\\xe0'": 225,
    "b'\\xe1'": 226,
    "b'\\xe2'": 227,
    "b'\\xe3'": 228,
    "b'\\xe4'": 229,
    "b'\\xe5'": 230,
    "b'\\xe6'": 231,
    "b'\\xe7'": 232,
    "b'\\xe8'": 233,
    "b'\\xe9'": 234,
    "b'\\xea'": 235,
    "b'\\xeb'": 236,
    "b'\\xec'": 237,
    "b'\\xed'": 238,
    "b'\\xee'": 239,
    "b'\\xef'": 240,
    "b'\\xf0'": 241,
    "b'\\xf1'": 242,
    "b'\\xf2'": 243,
    "b'\\xf3'": 244,
    "b'\\xf4'": 245,
    "b'\\xf5'": 246,
    "b'\\xf6'": 247,
    "b'\\xf7'": 248,
    "b'\\xf8'": 249,
    "b'\\xf9'": 250,
    "b'\\xfa'": 251,
    "b'\\xfb'": 252,
    "b'\\xfc'": 253,
    "b'\\xfd'": 254,
    "b'\\xfe'": 255,
    "b'\\xff'": 256,
    "\\t\\t": 257,
    "\\t\\n": 258,
    "\\t ": 259,
    "\\n\\t": 260,
    "\\n\\n": 261,
    "\\n ": 262,
    "\\r\\n": 263,
    " \\t": 264,
    " \\n": 265,
    " \\r": 266,
    "  ": 267,
    " !": 268,
    " \"": 269,
    " #": 270,
    " $": 271,
    " %": 272,
    " &": 273,
    " '": 274,
    " (": 275,
    " )": 276,
    " *": 277,
    " +": 278,
    " ,": 279,
    " -": 280,
    " .": 281,
    " /": 282,
    " 0": 283,
    " 1": 284,
    " 2": 285,
    " 3": 286,
    " 4": 287,
    " 5": 288,
    " 6": 289,
    " 7": 290,
    " 8": 291,
    " 9": 292,
    " :": 293,
    " ;": 294,
    " <": 295,
    " =": 296,
    " >": 297,
    " ?": 298,
    " @": 299,
    " A": 300,
    " B": 301,
    " C": 302,
    " D": 303,
    " E": 304,
    " F": 305,
    " G": 306,
    " H": 307,
    " I": 308,
    " J": 309,
    " K": 310,
    " L": 311,
    " M": 312,
    " N": 313,
    " O": 314,
    " P": 315,
    " Q": 316,
    " R": 317,
    " S": 318,
    " T": 319,
    " U": 320,
    " V": 321,
    " W": 322,
    " X": 323,
    " Y": 324,
    " Z": 325,
    " [": 326,
    " \\\\": 327,
    " ]": 328,
    " ^": 329,
    " _": 330,
    " `": 331,
    " a": 332,
    " b": 333,
    " c": 334,
    " d": 335,
    " e": 336,
    " f": 337,
    " g": 338,
    " h": 339,
    " i": 340,
    " j": 341,
    " k": 342,
    " l": 343,
    " m": 344,
    " n": 345,
    " o": 346,
    " p": 347,
    " q": 348,
    " r": 349,
    " s": 350,
    " t": 351,
    " u": 352,
    " v": 353,
    " w": 354,
    " x": 355,
    " y": 356,
    " z": 357,
    " {": 358,
    " |": 359,
    " }": 360,
    " ~": 361,
    "!!": 362,
    "!\"": 363,
    "!'": 364,
    "!(": 365,
    "!)": 366,
    "!,": 367,
    "!.": 368,
    "!/": 369,
    "!=": 370,
    "!?": 371,
    "![": 372,
    "!\\\\": 373,
    "\"\"": 374,
    "\"#": 375,
    "\"$": 376,
    "\"%": 377,
    "\"&": 378,
    "\"\\'": 379,
    "\"(": 380,
    "\")": 381,
    "\"*": 382,
    "\"+": 383,
    "\",": 384,
    "\"-": 385,
    "\".": 386,
    "\"/": 387,
    "\":": 388,
    "\";": 389,
    "\"<": 390,
    "\">": 391,
    "\"?": 392,
    "\"[": 393,
    "\"\\\\": 394,
    "\"]": 395,
    "\"_": 396,
    "\"`": 397,
    "\"{": 398,
    "\"}": 399,
    "#!": 400,
    "#\"": 401,
    "##": 402,
    "#'": 403,
    "#,": 404,
    "#.": 405,
    "#:": 406,
    "#{": 407,
    "$\"": 408,
    "$$": 409,
    "$'": 410,
    "$(": 411,
    "$,": 412,
    "$.": 413,
    "$/": 414,
    "$:": 415,
    "$;": 416,
    "$\\\\": 417,
    "$_": 418,
    "${": 419,
    "%\"": 420,
    "%%": 421,
    "%'": 422,
    "%(": 423,
    "%)": 424,
    "%,": 425,
    "%-": 426,
    "%.": 427,
    "%;": 428,
    "%=": 429,
    "%\\\\": 430,
    "&#": 431,
    "&&": 432,
    "&=": 433,
    "&\\\\": 434,
    "\\'\"": 435,
    "'#": 436,
    "'$": 437,
    "'%": 438,
    "''": 439,
    "'(": 440,
    "')": 441,
    "'*": 442,
    "'+": 443,
    "',": 444,
    "'-": 445,
    "'.": 446,
    "'/": 447,
    "':": 448,
    "';": 449,
    "'<": 450,
    "'>": 451,
    "'?": 452,
    "'[": 453,
    "'\\\\": 454,
    "']": 455,
    "'^": 456,
    "'_": 457,
    "'d": 458,
    "'m": 459,
    "'s": 460,
    "'t": 461,
    "'{": 462,
    "'}": 463,
    "(!": 464,
    "(\"": 465,
    "(#": 466,
    "($": 467,
    "(%": 468,
    "(&": 469,
    "('": 470,
    "((": 471,
    "()": 472,
    "(*": 473,
    "(+": 474,
    "(-": 475,
    "(.": 476,
    "(/": 477,
    "(:": 478,
    "(<": 479,
    "(?": 480,
    "(@": 481,
    "([": 482,
    "(\\\\": 483,
    "(_": 484,
    "(`": 485,
    "({": 486,
    "(|": 487,
    ")!": 488,
    ")\"": 489,
    ")$": 490,
    ")&": 491,
    ")'": 492,
    ")(": 493,
    "))": 494,
    ")*": 495,
    ")+": 496,
    "),": 497,
    ")-": 498,
    ").": 499,
    ")/": 500,
    "):": 501,
    ");": 502,
    ")<": 503,
    ")=": 504,
    ")>": 505,
    ")?": 506,
    ")[": 507,
    ")\\\\": 508,
    ")]": 509,
    ")^": 510,
    ")_": 511,
    ")`": 512,
    "){": 513,
    ")|": 514,
    ")}": 515,
    "*\"": 516,
    "*'": 517,
    "*(": 518,
    "*)": 519,
    "**": 520,
    "*,": 521,
    "*-": 522,
    "*.": 523,
    "*/": 524,
    "*:": 525,
    "*=": 526,
    "*>": 527,
    "*\\\\": 528,
    "*_": 529,
    "*}": 530,
    "+\"": 531,
    "+$": 532,
    "+'": 533,
    "+(": 534,
    "+)": 535,
    "++": 536,
    "+,": 537,
    "+-": 538,
    "+.": 539,
    "+/": 540,
    "+=": 541,
    "+[": 542,
    "+\\\\": 543,
    ",\"": 544,
    ",#": 545,
    ",$": 546,
    ",%": 547,
    ",'": 548,
    ",(": 549,
    ",)": 550,
    ",*": 551,
    ",,": 552,
    ",-": 553,
    ",.": 554,
    ",[": 555,
    ",\\\\": 556,
    ",_": 557,
    ",{": 558,
    "-\"": 559,
    "-$": 560,
    "-%": 561,
    "-'": 562,
    "-(": 563,
    "-)": 564,
    "-*": 565,
    "-+": 566,
    "-,": 567,
    "--": 568,
    "-.": 569,
    "-=": 570,
    "->": 571,
    "-[": 572,
    "-\\\\": 573,
    "-{": 574,
    ".\"": 575,
    ".$": 576,
    ".%": 577,
    ".'": 578,
    ".(": 579,
    ".)": 580,
    ".*": 581,
    ".+": 582,
    ".,": 583,
    ".-": 584,
    "..": 585,
    "./": 586,
    ".:": 587,
    ".;": 588,
    ".<": 589,
    ".=": 590,
    ".?": 591,
    ".[": 592,
    ".\\\\": 593,
    ".]": 594,
    "._": 595,
    ".|": 596,
    "/\"": 597,
    "/#": 598,
    "/$": 599,
    "/%": 600,
    "/'": 601,
    "/(": 602,
    "/)": 603,
    "/*": 604,
    "/+": 605,
    "/,": 606,
    "/-": 607,
    "/.": 608,
    "//": 609,
    "/:": 610,
    "/<": 611,
    "/>": 612,
    "/?": 613,
    "/@": 614,
    "/[": 615,
    "/\\\\": 616,
    "/_": 617,
    "/{": 618,
    "/~": 619,
    "00": 620,
    "01": 621,
    "02": 622,
    "03": 623,
    "04": 624,
    "05": 625,
    "06": 626,
    "07": 627,
    "08": 628,
    "09": 629,
    "10": 630,
    "11": 631,
    "12": 632,
    "13": 633,
    "14": 634,
    "15": 635,
    "16": 636,
    "17": 637,
    "18": 638,
    "19": 639,
    "20": 640,
    "21": 641,
    "22": 642,
    "23": 643,
    "24": 644,
    "25": 645,
    "26": 646,
    "27": 647,
    "28": 648,
    "29": 649,
    "30": 650,
    "31": 651,
    "32": 652,
    "33": 653,
    "34": 654,
    "35": 655,
    "36": 656,
    "37": 657,
    "38": 658,
    "39": 659,
    "40": 660,
    "41": 661,
    "42": 662,
    "43": 663,
    "44": 664,
    "45": 665,
    "46": 666,
    "47": 667,
    "48": 668,
    "49": 669,
    "50": 670,
    "51": 671,
    "52": 672,
    "53": 673,
    "54": 674,
    "55": 675,
    "56": 676,
    "57": 677,
    "58": 678,
    "59": 679,
    "60": 680,
    "61": 681,
    "62": 682,
    "63": 683,
    "64": 684,
    "65": 685,
    "66": 686,
    "67": 687,
    "68": 688,
    "69": 689,
    "70": 690,
    "71": 691,
    "72": 692,
    "73": 693,
    "74": 694,
    "75": 695,
    "76": 696,
    "77": 697,
    "78": 698,
    "79": 699,
    "80": 700,
    "81": 701,
    "82": 702,
    "83": 703,
    "84": 704,
    "85": 705,
    "86": 706,
    "87": 707,
    "88": 708,
    "89": 709,
    "90": 710,
    "91": 711,
    "92": 712,
    "93": 713,
    "94": 714,
    "95": 715,
    "96": 716,
    "97": 717,
    "98": 718,
    "99": 719,
    ":\"": 720,
    ":#": 721,
    ":$": 722,
    ":%": 723,
    ":'": 724,
    ":(": 725,
    ":)": 726,
    ":*": 727,
    ":,": 728,
    ":-": 729,
    ":.": 730,
    ":/": 731,
    "::": 732,
    ":=": 733,
    ":@": 734,
    ":[": 735,
    ":\\\\": 736,
    ":]": 737,
    ":_": 738,
    ":`": 739,
    ":{": 740,
    ";\"": 741,
    ";&": 742,
    ";'": 743,
    ";-": 744,
    ";/": 745,
    ";;": 746,
    ";<": 747,
    ";\\\\": 748,
    ";}": 749,
    "<!": 750,
    "<%": 751,
    "<'": 752,
    "<-": 753,
    "</": 754,
    "<<": 755,
    "<=": 756,
    "<>": 757,
    "<?": 758,
    "<\\\\": 759,
    "<_": 760,
    "=\"": 761,
    "=#": 762,
    "=$": 763,
    "=%": 764,
    "=&": 765,
    "='": 766,
    "=(": 767,
    "=-": 768,
    "=.": 769,
    "=/": 770,
    "=<": 771,
    "==": 772,
    "=>": 773,
    "=[": 774,
    "=\\\\": 775,
    "=_": 776,
    "=`": 777,
    "={": 778,
    ">\"": 779,
    ">&": 780,
    ">'": 781,
    ">(": 782,
    ">)": 783,
    ">,": 784,
    ">-": 785,
    ">.": 786,
    ">/": 787,
    ">:": 788,
    ">;": 789,
    "><": 790,
    ">=": 791,
    ">>": 792,
    ">[": 793,
    ">\\\\": 794,
    ">]": 795,
    ">`": 796,
    ">{": 797,
    "?!": 798,
    "?\"": 799,
    "?'": 800,
    "?(": 801,
    "?)": 802,
    "?,": 803,
    "?.": 804,
    "?:": 805,
    "?>": 806,
    "??": 807,
    "?\\\\": 808,
    "@\"": 809,
    "@@": 810,
    "@{": 811,
    "AA": 812,
    "AB": 813,
    "AC": 814,
    "AD": 815,
    "AE": 816,
    "AF": 817,
    "AG": 818,
    "AH": 819,
    "AI": 820,
    "AJ": 821,
    "AK": 822,
    "AL": 823,
    "AM": 824,
    "AN": 825,
    "AO": 826,
    "AP": 827,
    "AQ": 828,
    "AR": 829,
    "AS": 830,
    "AT": 831,
    "AU": 832,
    "AV": 833,
    "AW": 834,
    "AX": 835,
    "AY": 836,
    "AZ": 837,
    "Ab": 838,
    "Ac": 839,
    "Ad": 840,
    "Af": 841,
    "Ag": 842,
    "Ah": 843,
    "Ai": 844,
    "Aj": 845,
    "Ak": 846,
    "Al": 847,
    "Am": 848,
    "An": 849,
    "Ao": 850,
    "Ap": 851,
    "Ar": 852,
    "As": 853,
    "At": 854,
    "Au": 855,
    "Av": 856,
    "Aw": 857,
    "Ax": 858,
    "Ay": 859,
    "Az": 860,
    "BA": 861,
    "BB": 862,
    "BC": 863,
    "BD": 864,
    "BE": 865,
    "BF": 866,
    "BG": 867,
    "BH": 868,
    "BI": 869,
    "BJ": 870,
    "BK": 871,
    "BL": 872,
    "BM": 873,
    "BN": 874,
    "BO": 875,
    "BP": 876,
    "BR": 877,
    "BS": 878,
    "BT": 879,
    "BU": 880,
    "BV": 881,
    "BW": 882,
    "BY": 883,
    "BZ": 884,
    "Ba": 885,
    "Be": 886,
    "Bg": 887,
    "Bi": 888,
    "Bl": 889,
    "Bo": 890,
    "Br": 891,
    "Bs": 892,
    "Bu": 893,
    "By": 894,
    "CA": 895,
    "CB": 896,
    "CC": 897,
    "CD": 898,
    "CE": 899,
    "CF": 900,
    "CG": 901,
    "CH": 902,
    "CI": 903,
    "CK": 904,
    "CL": 905,
    "CM": 906,
    "CN": 907,
    "CO": 908,
    "CP": 909,
    "CR": 910,
    "CS": 911,
    "CT": 912,
    "CU": 913,
    "CV": 914,
    "CW": 915,
    "CX": 916,
    "CY": 917,
    "Ca": 918,
    "Cb": 919,
    "Cd": 920,
    "Ce": 921,
    "Ch": 922,
    "Ci": 923,
    "Cl": 924,
    "Co": 925,
    "Cp": 926,
    "Cr": 927,
    "Cs": 928,
    "Ct": 929,
    "Cu": 930,
    "Cy": 931,
    "DA": 932,
    "DB": 933,
    "DC": 934,
    "DD": 935,
    "DE": 936,
    "DF": 937,
    "DG": 938,
    "DH": 939,
    "DI": 940,
    "DJ": 941,
    "DK": 942,
    "DL": 943,
    "DM": 944,
    "DN": 945,
    "DO": 946,
    "DP": 947,
    "DQ": 948,
    "DR": 949,
    "DS": 950,
    "DT": 951,
    "DU": 952,
    "DV": 953,
    "DW": 954,
    "DX": 955,
    "DY": 956,
    "Da": 957,
    "Db": 958,
    "De": 959,
    "Di": 960,
    "Do": 961,
    "Dr": 962,
    "Ds": 963,
    "Du": 964,
    "Dy": 965,
    "EA": 966,
    "EB": 967,
    "EC": 968,
    "ED": 969,
    "EE": 970,
    "EF": 971,
    "EG": 972,
    "EH": 973,
    "EI": 974,
    "EK": 975,
    "EL": 976,
    "EM": 977,
    "EN": 978,
    "EO": 979,
    "EP": 980,
    "EQ": 981,
    "ER": 982,
    "ES": 983,
    "ET": 984,
    "EU": 985,
    "EV": 986,
    "EW": 987,
    "EX": 988,
    "EY": 989,
    "Ec": 990,
    "Ed": 991,
    "Eg": 992,
    "Eh": 993,
    "El": 994,
    "Em": 995,
    "En": 996,
    "Ep": 997,
    "Eq": 998,
    "Er": 999,
    "Es": 1000,
    "Et": 1001,
    "Eu": 1002,
    "Ev": 1003,
    "Ex": 1004,
    "Ey": 1005,
    "FA": 1006,
    "FB": 1007,
    "FC": 1008,
    "FD": 1009,
    "FE": 1010,
    "FF": 1011,
    "FG": 1012,
    "FH": 1013,
    "FI": 1014,
    "FK": 1015,
    "FL": 1016,
    "FM": 1017,
    "FN": 1018,
    "FO": 1019,
    "FP": 1020,
    "FR": 1021,
    "FS": 1022,
    "FT": 1023,
    "FU": 1024,
    "FV": 1025,
    "FW": 1026,
    "FX": 1027,
    "FY": 1028,
    "Fa": 1029,
    "Fc": 1030,
    "Fe": 1031,
    "Fi": 1032,
    "Fl": 1033,
    "Fn": 1034,
    "Fo": 1035,
    "Fr": 1036,
    "Fs": 1037,
    "Fu": 1038,
    "GA": 1039,
    "GB": 1040,
    "GC": 1041,
    "GD": 1042,
    "GE": 1043,
    "GF": 1044,
    "GG": 1045,
    "GH": 1046,
    "GI": 1047,
    "GL": 1048,
    "GM": 1049,
    "GN": 1050,
    "GO": 1051,
    "GP": 1052,
    "GR": 1053,
    "GS": 1054,
    "GT": 1055,
    "GU": 1056,
    "GV": 1057,
    "GW": 1058,
    "GY": 1059,
    "Ga": 1060,
    "Gb": 1061,
    "Ge": 1062,
    "Gh": 1063,
    "Gi": 1064,
    "Gl": 1065,
    "Go": 1066,
    "Gr": 1067,
    "Gs": 1068,
    "Gu": 1069,
    "Gy": 1070,
    "HA": 1071,
    "HB": 1072,
    "HC": 1073,
    "HD": 1074,
    "HE": 1075,
    "HF": 1076,
    "HG": 1077,
    "HH": 1078,
    "HI": 1079,
    "HK": 1080,
    "HL": 1081,
    "HM": 1082,
    "HN": 1083,
    "HO": 1084,
    "HP": 1085,
    "HQ": 1086,
    "HR": 1087,
    "HS": 1088,
    "HT": 1089,
    "HU": 1090,
    "HV": 1091,
    "HW": 1092,
    "HY": 1093,
    "Ha": 1094,
    "He": 1095,
    "Hg": 1096,
    "Hi": 1097,
    "Ho": 1098,
    "Hp": 1099,
    "Hs": 1100,
    "Hu": 1101,
    "Hy": 1102,
    "Hz": 1103,
    "IA": 1104,
    "IB": 1105,
    "IC": 1106,
    "ID": 1107,
    "IE": 1108,
    "IF": 1109,
    "IG": 1110,
    "IH": 1111,
    "II": 1112,
    "IJ": 1113,
    "IK": 1114,
    "IL": 1115,
    "IM": 1116,
    "IN": 1117,
    "IO": 1118,
    "IP": 1119,
    "IQ": 1120,
    "IR": 1121,
    "IS": 1122,
    "IT": 1123,
    "IU": 1124,
    "IV": 1125,
    "IW": 1126,
    "IX": 1127,
    "IZ": 1128,
    "Id": 1129,
    "If": 1130,
    "Ig": 1131,
    "Ii": 1132,
    "Ik": 1133,
    "Il": 1134,
    "Im": 1135,
    "In": 1136,
    "Io": 1137,
    "Ip": 1138,
    "Ir": 1139,
    "Is": 1140,
    "It": 1141,
    "Iz": 1142,
    "JA": 1143,
    "JB": 1144,
    "JC": 1145,
    "JD": 1146,
    "JE": 1147,
    "JF": 1148,
    "JI": 1149,
    "JJ": 1150,
    "JK": 1151,
    "JM": 1152,
    "JO": 1153,
    "JP": 1154,
    "JR": 1155,
    "JS": 1156,
    "JT": 1157,
    "JU": 1158,
    "Ja": 1159,
    "Je": 1160,
    "Ji": 1161,
    "Jo": 1162,
    "Js": 1163,
    "Ju": 1164,
    "Jy": 1165,
    "KA": 1166,
    "KB": 1167,
    "KC": 1168,
    "KD": 1169,
    "KE": 1170,
    "KF": 1171,
    "KG": 1172,
    "KH": 1173,
    "KI": 1174,
    "KK": 1175,
    "KL": 1176,
    "KM": 1177,
    "KN": 1178,
    "KO": 1179,
    "KP": 1180,
    "KR": 1181,
    "KS": 1182,
    "KT": 1183,
    "KV": 1184,
    "KW": 1185,
    "KY": 1186,
    "Ka": 1187,
    "Ke": 1188,
    "Kh": 1189,
    "Ki": 1190,
    "Kn": 1191,
    "Ko": 1192,
    "Kr": 1193,
    "Ku": 1194,
    "Ky": 1195,
    "LA": 1196,
    "LB": 1197,
    "LC": 1198,
    "LD": 1199,
    "LE": 1200,
    "LF": 1201,
    "LG": 1202,
    "LH": 1203,
    "LI": 1204,
    "LL": 1205,
    "LM": 1206,
    "LN": 1207,
    "LO": 1208,
    "LP": 1209,
    "LR": 1210,
    "LS": 1211,
    "LT": 1212,
    "LU": 1213,
    "LV": 1214,
    "LW": 1215,
    "LY": 1216,
    "La": 1217,
    "Le": 1218,
    "Li": 1219,
    "Ll": 1220,
    "Ln": 1221,
    "Lo": 1222,
    "Lt": 1223,
    "Lu": 1224,
    "Ly": 1225,
    "MA": 1226,
    "MB": 1227,
    "MC": 1228,
    "MD": 1229,
    "ME": 1230,
    "MF": 1231,
    "MG": 1232,
    "MH": 1233,
    "MI": 1234,
    "MK": 1235,
    "ML": 1236,
    "MM": 1237,
    "MN": 1238,
    "MO": 1239,
    "MP": 1240,
    "MQ": 1241,
    "MR": 1242,
    "MS": 1243,
    "MT": 1244,
    "MU": 1245,
    "MV": 1246,
    "MW": 1247,
    "MX": 1248,
    "MY": 1249,
    "Ma": 1250,
    "Mb": 1251,
    "Mc": 1252,
    "Me": 1253,
    "Mg": 1254,
    "Mi": 1255,
    "Mj": 1256,
    "Mn": 1257,
    "Mo": 1258,
    "Mp": 1259,
    "Mr": 1260,
    "Ms": 1261,
    "Mt": 1262,
    "Mu": 1263,
    "My": 1264,
    "Mz": 1265,
    "NA": 1266,
    "NB": 1267,
    "NC": 1268,
    "ND": 1269,
    "NE": 1270,
    "NF": 1271,
    "NG": 1272,
    "NH": 1273,
    "NI": 1274,
    "NJ": 1275,
    "NK": 1276,
    "NL": 1277,
    "NM": 1278,
    "NN": 1279,
    "NO": 1280,
    "NP": 1281,
    "NR": 1282,
    "NS": 1283,
    "NT": 1284,
    "NU": 1285,
    "NV": 1286,
    "NW": 1287,
    "NX": 1288,
    "NY": 1289,
    "NZ": 1290,
    "Na": 1291,
    "Nb": 1292,
    "Nd": 1293,
    "Ne": 1294,
    "Ng": 1295,
    "Ni": 1296,
    "No": 1297,
    "Nr": 1298,
    "Ns": 1299,
    "Nu": 1300,
    "Nx": 1301,
    "Ny": 1302,
    "Nz": 1303,
    "OA": 1304,
    "OB": 1305,
    "OC": 1306,
    "OD": 1307,
    "OE": 1308,
    "OF": 1309,
    "OG": 1310,
    "OH": 1311,
    "OI": 1312,
    "OK": 1313,
    "OL": 1314,
    "OM": 1315,
    "ON": 1316,
    "OO": 1317,
    "OP": 1318,
    "OR": 1319,
    "OS": 1320,
    "OT": 1321,
    "OU": 1322,
    "OV": 1323,
    "OW": 1324,
    "OX": 1325,
    "OY": 1326,
    "Ob": 1327,
    "Oc": 1328,
    "Od": 1329,
    "Of": 1330,
    "Oh": 1331,
    "Oi": 1332,
    "Ok": 1333,
    "Ol": 1334,
    "Om": 1335,
    "On": 1336,
    "Op": 1337,
    "Or": 1338,
    "Os": 1339,
    "Ot": 1340,
    "Ox": 1341,
    "PA": 1342,
    "PB": 1343,
    "PC": 1344,
    "PD": 1345,
    "PE": 1346,
    "PF": 1347,
    "PG": 1348,
    "PH": 1349,
    "PI": 1350,
    "PK": 1351,
    "PL": 1352,
    "PM": 1353,
    "PN": 1354,
    "PO": 1355,
    "PP": 1356,
    "PR": 1357,
    "PS": 1358,
    "PT": 1359,
    "PU": 1360,
    "PV": 1361,
    "PW": 1362,
    "PY": 1363,
    "Pa": 1364,
    "Pb": 1365,
    "Pe": 1366,
    "Ph": 1367,
    "Pi": 1368,
    "Pl": 1369,
    "Po": 1370,
    "Pr": 1371,
    "Ps": 1372,
    "Pt": 1373,
    "Pu": 1374,
    "Px": 1375,
    "Py": 1376,
    "QA": 1377,
    "QB": 1378,
    "QC": 1379,
    "QE": 1380,
    "QI": 1381,
    "QL": 1382,
    "QM": 1383,
    "QP": 1384,
    "QQ": 1385,
    "QR": 1386,
    "QS": 1387,
    "QT": 1388,
    "QU": 1389,
    "Qi": 1390,
    "Qt": 1391,
    "Qu": 1392,
    "RA": 1393,
    "RB": 1394,
    "RC": 1395,
    "RD": 1396,
    "RE": 1397,
    "RF": 1398,
    "RG": 1399,
    "RH": 1400,
    "RI": 1401,
    "RK": 1402,
    "RL": 1403,
    "RM": 1404,
    "RN": 1405,
    "RO": 1406,
    "RP": 1407,
    "RR": 1408,
    "RS": 1409,
    "RT": 1410,
    "RU": 1411,
    "RV": 1412,
    "RW": 1413,
    "RX": 1414,
    "RY": 1415,
    "Ra": 1416,
    "Re": 1417,
    "Rh": 1418,
    "Ri": 1419,
    "Ro": 1420,
    "Rp": 1421,
    "Rs": 1422,
    "Ru": 1423,
    "Rv": 1424,
    "Rx": 1425,
    "Ry": 1426,
    "SA": 1427,
    "SB": 1428,
    "SC": 1429,
    "SD": 1430,
    "SE": 1431,
    "SF": 1432,
    "SG": 1433,
    "SH": 1434,
    "SI": 1435,
    "SK": 1436,
    "SL": 1437,
    "SM": 1438,
    "SN": 1439,
    "SO": 1440,
    "SP": 1441,
    "SQ": 1442,
    "SR": 1443,
    "SS": 1444,
    "ST": 1445,
    "SU": 1446,
    "SV": 1447,
    "SW": 1448,
    "SY": 1449,
    "SZ": 1450,
    "Sa": 1451,
    "Sb": 1452,
    "Sc": 1453,
    "Se": 1454,
    "Sh": 1455,
    "Si": 1456,
    "Sk": 1457,
    "Sl": 1458,
    "Sm": 1459,
    "Sn": 1460,
    "So": 1461,
    "Sp": 1462,
    "Sq": 1463,
    "Sr": 1464,
    "St": 1465,
    "Su": 1466,
    "Sw": 1467,
    "Sy": 1468,
    "Sz": 1469,
    "TA": 1470,
    "TB": 1471,
    "TC": 1472,
    "TD": 1473,
    "TE": 1474,
    "TF": 1475,
    "TG": 1476,
    "TH": 1477,
    "TI": 1478,
    "TK": 1479,
    "TL": 1480,
    "TM": 1481,
    "TN": 1482,
    "TO": 1483,
    "TP": 1484,
    "TR": 1485,
    "TS": 1486,
    "TT": 1487,
    "TU": 1488,
    "TV": 1489,
    "TW": 1490,
    "TX": 1491,
    "TY": 1492,
    "TZ": 1493,
    "Ta": 1494,
    "Tc": 1495,
    "Te": 1496,
    "Th": 1497,
    "Ti": 1498,
    "Tk": 1499,
    "To": 1500,
    "Tp": 1501,
    "Tr": 1502,
    "Ts": 1503,
    "Tu": 1504,
    "Tw": 1505,
    "Tx": 1506,
    "Ty": 1507,
    "UA": 1508,
    "UB": 1509,
    "UC": 1510,
    "UD": 1511,
    "UE": 1512,
    "UF": 1513,
    "UG": 1514,
    "UH": 1515,
    "UI": 1516,
    "UK": 1517,
    "UL": 1518,
    "UM": 1519,
    "UN": 1520,
    "UP": 1521,
    "UR": 1522,
    "US": 1523,
    "UT": 1524,
    "UU": 1525,
    "UV": 1526,
    "UX": 1527,
    "UY": 1528,
    "Ub": 1529,
    "Uh": 1530,
    "Ui": 1531,
    "Uk": 1532,
    "Ul": 1533,
    "Um": 1534,
    "Un": 1535,
    "Up": 1536,
    "Ur": 1537,
    "Us": 1538,
    "Ut": 1539,
    "VA": 1540,
    "VB": 1541,
    "VC": 1542,
    "VD": 1543,
    "VE": 1544,
    "VF": 1545,
    "VG": 1546,
    "VH": 1547,
    "VI": 1548,
    "VK": 1549,
    "VL": 1550,
    "VM": 1551,
    "VN": 1552,
    "VO": 1553,
    "VP": 1554,
    "VR": 1555,
    "VS": 1556,
    "VT": 1557,
    "VV": 1558,
    "Va": 1559,
    "Ve": 1560,
    "Vi": 1561,
    "Vm": 1562,
    "Vo": 1563,
    "Vs": 1564,
    "Vu": 1565,
    "Vy": 1566,
    "WA": 1567,
    "WB": 1568,
    "WC": 1569,
    "WD": 1570,
    "WE": 1571,
    "WF": 1572,
    "WG": 1573,
    "WH": 1574,
    "WI": 1575,
    "WK": 1576,
    "WL": 1577,
    "WM": 1578,
    "WN": 1579,
    "WO": 1580,
    "WP": 1581,
    "WR": 1582,
    "WS": 1583,
    "WT": 1584,
    "WV": 1585,
    "WW": 1586,
    "WX": 1587,
    "Wa": 1588,
    "We": 1589,
    "Wh": 1590,
    "Wi": 1591,
    "Wo": 1592,
    "Wr": 1593,
    "Ws": 1594,
    "Wy": 1595,
    "XA": 1596,
    "XB": 1597,
    "XC": 1598,
    "XD": 1599,
    "XF": 1600,
    "XG": 1601,
    "XI": 1602,
    "XL": 1603,
    "XM": 1604,
    "XP": 1605,
    "XR": 1606,
    "XS": 1607,
    "XT": 1608,
    "XV": 1609,
    "XX": 1610,
    "XY": 1611,
    "Xi": 1612,
    "YA": 1613,
    "YC": 1614,
    "YE": 1615,
    "YL": 1616,
    "YM": 1617,
    "YN": 1618,
    "YO": 1619,
    "YP": 1620,
    "YR": 1621,
    "YS": 1622,
    "YT": 1623,
    "YW": 1624,
    "YX": 1625,
    "YY": 1626,
    "Ya": 1627,
    "Ye": 1628,
    "Yo": 1629,
    "Yu": 1630,
    "ZA": 1631,
    "ZE": 1632,
    "ZH": 1633,
    "ZO": 1634,
    "ZT": 1635,
    "ZW": 1636,
    "ZX": 1637,
    "ZY": 1638,
    "ZZ": 1639,
    "Za": 1640,
    "Ze": 1641,
    "Zh": 1642,
    "Zn": 1643,
    "[\"": 1644,
    "[$": 1645,
    "['": 1646,
    "[(": 1647,
    "[*": 1648,
    "[,": 1649,
    "[-": 1650,
    "[/": 1651,
    "[:": 1652,
    "[@": 1653,
    "[[": 1654,
    "[\\\\": 1655,
    "[]": 1656,
    "[^": 1657,
    "[_": 1658,
    "[{": 1659,
    "\\\\\"": 1660,
    "\\\\$": 1661,
    "\\\\%": 1662,
    "\\\\'": 1663,
    "\\\\(": 1664,
    "\\\\)": 1665,
    "\\\\,": 1666,
    "\\\\-": 1667,
    "\\\\.": 1668,
    "\\\\/": 1669,
    "\\\\;": 1670,
    "\\\\<": 1671,
    "\\\\[": 1672,
    "\\\\\\\\": 1673,
    "\\\\]": 1674,
    "\\\\_": 1675,
    "\\\\{": 1676,
    "\\\\}": 1677,
    "]\"": 1678,
    "]$": 1679,
    "]'": 1680,
    "](": 1681,
    "])": 1682,
    "]*": 1683,
    "]+": 1684,
    "],": 1685,
    "]-": 1686,
    "].": 1687,
    "]/": 1688,
    "]:": 1689,
    "];": 1690,
    "]<": 1691,
    "]=": 1692,
    "]>": 1693,
    "]?": 1694,
    "][": 1695,
    "]\\\\": 1696,
    "]]": 1697,
    "]_": 1698,
    "]{": 1699,
    "]|": 1700,
    "]}": 1701,
    "^(": 1702,
    "^*": 1703,
    "^-": 1704,
    "^\\\\": 1705,
    "^^": 1706,
    "^{": 1707,
    "_\"": 1708,
    "_%": 1709,
    "_'": 1710,
    "_(": 1711,
    "_)": 1712,
    "_*": 1713,
    "_,": 1714,
    "_-": 1715,
    "_.": 1716,
    "_:": 1717,
    "_;": 1718,
    "_<": 1719,
    "_>": 1720,
    "_[": 1721,
    "_\\\\": 1722,
    "_]": 1723,
    "__": 1724,
    "_{": 1725,
    "`)": 1726,
    "`,": 1727,
    "`.": 1728,
    "`:": 1729,
    "`;": 1730,
    "`\\\\": 1731,
    "``": 1732,
    "aa": 1733,
    "ab": 1734,
    "ac": 1735,
    "ad": 1736,
    "ae": 1737,
    "af": 1738,
    "ag": 1739,
    "ah": 1740,
    "ai": 1741,
    "aj": 1742,
    "ak": 1743,
    "al": 1744,
    "am": 1745,
    "an": 1746,
    "ao": 1747,
    "ap": 1748,
    "aq": 1749,
    "ar": 1750,
    "as": 1751,
    "at": 1752,
    "au": 1753,
    "av": 1754,
    "aw": 1755,
    "ax": 1756,
    "ay": 1757,
    "az": 1758,
    "ba": 1759,
    "bb": 1760,
    "bc": 1761,
    "bd": 1762,
    "be": 1763,
    "bf": 1764,
    "bg": 1765,
    "bh": 1766,
    "bi": 1767,
    "bj": 1768,
    "bk": 1769,
    "bl": 1770,
    "bm": 1771,
    "bn": 1772,
    "bo": 1773,
    "bp": 1774,
    "br": 1775,
    "bs": 1776,
    "bt": 1777,
    "bu": 1778,
    "bv": 1779,
    "bw": 1780,
    "bx": 1781,
    "by": 1782,
    "bz": 1783,
    "ca": 1784,
    "cb": 1785,
    "cc": 1786,
    "cd": 1787,
    "ce": 1788,
    "cf": 1789,
    "cg": 1790,
    "ch": 1791,
    "ci": 1792,
    "cj": 1793,
    "ck": 1794,
    "cl": 1795,
    "cm": 1796,
    "cn": 1797,
    "co": 1798,
    "cp": 1799,
    "cq": 1800,
    "cr": 1801,
    "cs": 1802,
    "ct": 1803,
    "cu": 1804,
    "cv": 1805,
    "cw": 1806,
    "cx": 1807,
    "cy": 1808,
    "cz": 1809,
    "dB": 1810,
    "dL": 1811,
    "dT": 1812,
    "dX": 1813,
    "da": 1814,
    "db": 1815,
    "dc": 1816,
    "dd": 1817,
    "de": 1818,
    "df": 1819,
    "dg": 1820,
    "dh": 1821,
    "di": 1822,
    "dj": 1823,
    "dk": 1824,
    "dl": 1825,
    "dm": 1826,
    "dn": 1827,
    "do": 1828,
    "dp": 1829,
    "dq": 1830,
    "dr": 1831,
    "ds": 1832,
    "dt": 1833,
    "du": 1834,
    "dv": 1835,
    "dw": 1836,
    "dx": 1837,
    "dy": 1838,
    "dz": 1839,
    "ea": 1840,
    "eb": 1841,
    "ec": 1842,
    "ed": 1843,
    "ee": 1844,
    "ef": 1845,
    "eg": 1846,
    "eh": 1847,
    "ei": 1848,
    "ej": 1849,
    "ek": 1850,
    "el": 1851,
    "em": 1852,
    "en": 1853,
    "eo": 1854,
    "ep": 1855,
    "eq": 1856,
    "er": 1857,
    "es": 1858,
    "et": 1859,
    "eu": 1860,
    "ev": 1861,
    "ew": 1862,
    "ex": 1863,
    "ey": 1864,
    "ez": 1865,
    "fa": 1866,
    "fb": 1867,
    "fc": 1868,
    "fd": 1869,
    "fe": 1870,
    "ff": 1871,
    "fg": 1872,
    "fh": 1873,
    "fi": 1874,
    "fj": 1875,
    "fk": 1876,
    "fl": 1877,
    "fm": 1878,
    "fn": 1879,
    "fo": 1880,
    "fp": 1881,
    "fq": 1882,
    "fr": 1883,
    "fs": 1884,
    "ft": 1885,
    "fu": 1886,
    "fv": 1887,
    "fw": 1888,
    "fx": 1889,
    "fy": 1890,
    "ga": 1891,
    "gb": 1892,
    "gc": 1893,
    "gd": 1894,
    "ge": 1895,
    "gf": 1896,
    "gg": 1897,
    "gh": 1898,
    "gi": 1899,
    "gl": 1900,
    "gm": 1901,
    "gn": 1902,
    "go": 1903,
    "gp": 1904,
    "gr": 1905,
    "gs": 1906,
    "gt": 1907,
    "gu": 1908,
    "gv": 1909,
    "gw": 1910,
    "gx": 1911,
    "gy": 1912,
    "gz": 1913,
    "ha": 1914,
    "hb": 1915,
    "hc": 1916,
    "hd": 1917,
    "he": 1918,
    "hf": 1919,
    "hg": 1920,
    "hh": 1921,
    "hi": 1922,
    "hj": 1923,
    "hk": 1924,
    "hl": 1925,
    "hm": 1926,
    "hn": 1927,
    "ho": 1928,
    "hp": 1929,
    "hr": 1930,
    "hs": 1931,
    "ht": 1932,
    "hu": 1933,
    "hw": 1934,
    "hy": 1935,
    "hz": 1936,
    "ia": 1937,
    "ib": 1938,
    "ic": 1939,
    "id": 1940,
    "ie": 1941,
    "if": 1942,
    "ig": 1943,
    "ih": 1944,
    "ii": 1945,
    "ij": 1946,
    "ik": 1947,
    "il": 1948,
    "im": 1949,
    "in": 1950,
    "io": 1951,
    "ip": 1952,
    "iq": 1953,
    "ir": 1954,
    "is": 1955,
    "it": 1956,
    "iu": 1957,
    "iv": 1958,
    "iw": 1959,
    "ix": 1960,
    "iy": 1961,
    "iz": 1962,
    "ja": 1963,
    "jb": 1964,
    "jc": 1965,
    "jd": 1966,
    "je": 1967,
    "jh": 1968,
    "ji": 1969,
    "jj": 1970,
    "jk": 1971,
    "jl": 1972,
    "jm": 1973,
    "jn": 1974,
    "jo": 1975,
    "jp": 1976,
    "jq": 1977,
    "jr": 1978,
    "js": 1979,
    "jt": 1980,
    "ju": 1981,
    "jv": 1982,
    "kB": 1983,
    "ka": 1984,
    "kb": 1985,
    "kc": 1986,
    "kd": 1987,
    "ke": 1988,
    "kg": 1989,
    "kh": 1990,
    "ki": 1991,
    "kj": 1992,
    "kk": 1993,
    "kl": 1994,
    "km": 1995,
    "kn": 1996,
    "ko": 1997,
    "kp": 1998,
    "kr": 1999,
    "ks": 2000,
    "kt": 2001,
    "ku": 2002,
    "kv": 2003,
    "kw": 2004,
    "kx": 2005,
    "ky": 2006,
    "la": 2007,
    "lb": 2008,
    "lc": 2009,
    "ld": 2010,
    "le": 2011,
    "lf": 2012,
    "lg": 2013,
    "lh": 2014,
    "li": 2015,
    "lj": 2016,
    "lk": 2017,
    "ll": 2018,
    "lm": 2019,
    "ln": 2020,
    "lo": 2021,
    "lp": 2022,
    "lr": 2023,
    "ls": 2024,
    "lt": 2025,
    "lu": 2026,
    "lv": 2027,
    "lw": 2028,
    "lx": 2029,
    "ly": 2030,
    "lz": 2031,
    "mL": 2032,
    "mV": 2033,
    "ma": 2034,
    "mb": 2035,
    "mc": 2036,
    "md": 2037,
    "me": 2038,
    "mf": 2039,
    "mg": 2040,
    "mh": 2041,
    "mi": 2042,
    "mj": 2043,
    "mk": 2044,
    "ml": 2045,
    "mm": 2046,
    "mn": 2047,
    "mo": 2048,
    "mp": 2049,
    "mq": 2050,
    "mr": 2051,
    "ms": 2052,
    "mt": 2053,
    "mu": 2054,
    "mv": 2055,
    "mw": 2056,
    "mx": 2057,
    "my": 2058,
    "na": 2059,
    "nb": 2060,
    "nc": 2061,
    "nd": 2062,
    "ne": 2063,
    "nf": 2064,
    "ng": 2065,
    "nh": 2066,
    "ni": 2067,
    "nj": 2068,
    "nk": 2069,
    "nl": 2070,
    "nm": 2071,
    "nn": 2072,
    "no": 2073,
    "np": 2074,
    "nr": 2075,
    "ns": 2076,
    "nt": 2077,
    "nu": 2078,
    "nv": 2079,
    "nw": 2080,
    "nx": 2081,
    "ny": 2082,
    "nz": 2083,
    "oS": 2084,
    "oa": 2085,
    "ob": 2086,
    "oc": 2087,
    "od": 2088,
    "oe": 2089,
    "of": 2090,
    "og": 2091,
    "oh": 2092,
    "oi": 2093,
    "oj": 2094,
    "ok": 2095,
    "ol": 2096,
    "om": 2097,
    "on": 2098,
    "oo": 2099,
    "op": 2100,
    "or": 2101,
    "os": 2102,
    "ot": 2103,
    "ou": 2104,
    "ov": 2105,
    "ow": 2106,
    "ox": 2107,
    "oy": 2108,
    "oz": 2109,
    "pH": 2110,
    "pa": 2111,
    "pb": 2112,
    "pc": 2113,
    "pd": 2114,
    "pe": 2115,
    "pf": 2116,
    "pg": 2117,
    "ph": 2118,
    "pi": 2119,
    "pk": 2120,
    "pl": 2121,
    "pm": 2122,
    "pn": 2123,
    "po": 2124,
    "pp": 2125,
    "pq": 2126,
    "pr": 2127,
    "ps": 2128,
    "pt": 2129,
    "pu": 2130,
    "pv": 2131,
    "pw": 2132,
    "px": 2133,
    "py": 2134,
    "qa": 2135,
    "qb": 2136,
    "qc": 2137,
    "qd": 2138,
    "qh": 2139,
    "qi": 2140,
    "ql": 2141,
    "qn": 2142,
    "qp": 2143,
    "qq": 2144,
    "qr": 2145,
    "qs": 2146,
    "qt": 2147,
    "qu": 2148,
    "qv": 2149,
    "qw": 2150,
    "ra": 2151,
    "rb": 2152,
    "rc": 2153,
    "rd": 2154,
    "re": 2155,
    "rf": 2156,
    "rg": 2157,
    "rh": 2158,
    "ri": 2159,
    "rk": 2160,
    "rl": 2161,
    "rm": 2162,
    "rn": 2163,
    "ro": 2164,
    "rp": 2165,
    "rq": 2166,
    "rr": 2167,
    "rs": 2168,
    "rt": 2169,
    "ru": 2170,
    "rv": 2171,
    "rw": 2172,
    "rx": 2173,
    "ry": 2174,
    "rz": 2175,
    "sa": 2176,
    "sb": 2177,
    "sc": 2178,
    "sd": 2179,
    "se": 2180,
    "sf": 2181,
    "sg": 2182,
    "sh": 2183,
    "si": 2184,
    "sj": 2185,
    "sk": 2186,
    "sl": 2187,
    "sm": 2188,
    "sn": 2189,
    "so": 2190,
    "sp": 2191,
    "sq": 2192,
    "sr": 2193,
    "ss": 2194,
    "st": 2195,
    "su": 2196,
    "sv": 2197,
    "sw": 2198,
    "sx": 2199,
    "sy": 2200,
    "sz": 2201,
    "ta": 2202,
    "tb": 2203,
    "tc": 2204,
    "td": 2205,
    "te": 2206,
    "tf": 2207,
    "tg": 2208,
    "th": 2209,
    "ti": 2210,
    "tk": 2211,
    "tl": 2212,
    "tm": 2213,
    "tn": 2214,
    "to": 2215,
    "tp": 2216,
    "tr": 2217,
    "ts": 2218,
    "tt": 2219,
    "tu": 2220,
    "tv": 2221,
    "tw": 2222,
    "tx": 2223,
    "ty": 2224,
    "tz": 2225,
    "ua": 2226,
    "ub": 2227,
    "uc": 2228,
    "ud": 2229,
    "ue": 2230,
    "uf": 2231,
    "ug": 2232,
    "uh": 2233,
    "ui": 2234,
    "uj": 2235,
    "uk": 2236,
    "ul": 2237,
    "um": 2238,
    "un": 2239,
    "uo": 2240,
    "up": 2241,
    "ur": 2242,
    "us": 2243,
    "ut": 2244,
    "uu": 2245,
    "uv": 2246,
    "uw": 2247,
    "ux": 2248,
    "uy": 2249,
    "uz": 2250,
    "va": 2251,
    "vb": 2252,
    "vc": 2253,
    "vd": 2254,
    "ve": 2255,
    "vf": 2256,
    "vg": 2257,
    "vh": 2258,
    "vi": 2259,
    "vk": 2260,
    "vl": 2261,
    "vm": 2262,
    "vn": 2263,
    "vo": 2264,
    "vp": 2265,
    "vr": 2266,
    "vs": 2267,
    "vt": 2268,
    "vu": 2269,
    "vv": 2270,
    "vw": 2271,
    "vx": 2272,
    "vy": 2273,
    "wa": 2274,
    "wb": 2275,
    "wc": 2276,
    "wd": 2277,
    "we": 2278,
    "wf": 2279,
    "wg": 2280,
    "wh": 2281,
    "wi": 2282,
    "wk": 2283,
    "wl": 2284,
    "wm": 2285,
    "wn": 2286,
    "wo": 2287,
    "wp": 2288,
    "wr": 2289,
    "ws": 2290,
    "wt": 2291,
    "wu": 2292,
    "ww": 2293,
    "wx": 2294,
    "wy": 2295,
    "xA": 2296,
    "xB": 2297,
    "xC": 2298,
    "xD": 2299,
    "xE": 2300,
    "xF": 2301,
    "xa": 2302,
    "xb": 2303,
    "xc": 2304,
    "xd": 2305,
    "xe": 2306,
    "xf": 2307,
    "xg": 2308,
    "xh": 2309,
    "xi": 2310,
    "xl": 2311,
    "xm": 2312,
    "xn": 2313,
    "xo": 2314,
    "xp": 2315,
    "xr": 2316,
    "xs": 2317,
    "xt": 2318,
    "xu": 2319,
    "xx": 2320,
    "xy": 2321,
    "xz": 2322,
    "ya": 2323,
    "yb": 2324,
    "yc": 2325,
    "yd": 2326,
    "ye": 2327,
    "yg": 2328,
    "yi": 2329,
    "yk": 2330,
    "yl": 2331,
    "ym": 2332,
    "yn": 2333,
    "yo": 2334,
    "yp": 2335,
    "yr": 2336,
    "ys": 2337,
    "yt": 2338,
    "yu": 2339,
    "yw": 2340,
    "yx": 2341,
    "yy": 2342,
    "yz": 2343,
    "zA": 2344,
    "za": 2345,
    "zb": 2346,
    "zc": 2347,
    "zd": 2348,
    "ze": 2349,
    "zh": 2350,
    "zi": 2351,
    "zk": 2352,
    "zl": 2353,
    "zm": 2354,
    "zn": 2355,
    "zo": 2356,
    "zr": 2357,
    "zs": 2358,
    "zt": 2359,
    "zu": 2360,
    "zw": 2361,
    "zy": 2362,
    "zz": 2363,
    "{\"": 2364,
    "{$": 2365,
    "{%": 2366,
    "{'": 2367,
    "{(": 2368,
    "{-": 2369,
    "{:": 2370,
    "{@": 2371,
    "{\\\\": 2372,
    "{{": 2373,
    "{|": 2374,
    "{}": 2375,
    "|$": 2376,
    "|(": 2377,
    "|-": 2378,
    "|.": 2379,
    "|\\\\": 2380,
    "|^": 2381,
    "||": 2382,
    "}\"": 2383,
    "}$": 2384,
    "}%": 2385,
    "}&": 2386,
    "}'": 2387,
    "}(": 2388,
    "})": 2389,
    "}+": 2390,
    "},": 2391,
    "}-": 2392,
    "}.": 2393,
    "}/": 2394,
    "}:": 2395,
    "};": 2396,
    "}<": 2397,
    "}=": 2398,
    "}>": 2399,
    "}?": 2400,
    "}[": 2401,
    "}\\\\": 2402,
    "}]": 2403,
    "}_": 2404,
    "}`": 2405,
    "}{": 2406,
    "}|": 2407,
    "}}": 2408,
    "~/": 2409,
    "~\\\\": 2410,
    "~~": 2411,
    "b'\\x82\\xac'": 2412,
    "b'\\x83\\xbd'": 2413,
    "b'\\x86\\x92'": 2414,
    "b'\\x88\\x98'": 2415,
    "b'\\x8c\\x80'": 2416,
    "b'\\x99\\x82'": 2417,
    "b'\\x9d\\xbc'": 2418,
    "b'\\xa3\\xbc'": 2419,
    "b'\\xa6\\x82'": 2420,
    "b'\\xb7\\xb8'": 2421,
    "b'\\xbf\\xbd'": 2422,
    "\\x80": 2423,
    "\\x81": 2424,
    "\\x91": 2425,
    "\\x92": 2426,
    "\\x93": 2427,
    "\\x94": 2428,
    "\\x97": 2429,
    "\\xa0": 2430,
    "¡": 2431,
    "¢": 2432,
    "£": 2433,
    "¤": 2434,
    "¥": 2435,
    "¦": 2436,
    "§": 2437,
    "¨": 2438,
    "©": 2439,
    "ª": 2440,
    "«": 2441,
    "¬": 2442,
    "\\xad": 2443,
    "®": 2444,
    "¯": 2445,
    "°": 2446,
    "±": 2447,
    "²": 2448,
    "³": 2449,
    "´": 2450,
    "µ": 2451,
    "¶": 2452,
    "·": 2453,
    "¸": 2454,
    "¹": 2455,
    "º": 2456,
    "»": 2457,
    "¼": 2458,
    "½": 2459,
    "¾": 2460,
    "¿": 2461,
    "À": 2462,
    "Á": 2463,
    "Â": 2464,
    "Ã": 2465,
    "Ä": 2466,
    "Å": 2467,
    "Æ": 2468,
    "Ç": 2469,
    "È": 2470,
    "É": 2471,
    "Ê": 2472,
    "Ë": 2473,
    "Ì": 2474,
    "Í": 2475,
    "Î": 2476,
    "Ï": 2477,
    "Ð": 2478,
    "Ñ": 2479,
    "Ò": 2480,
    "Ó": 2481,
    "Ô": 2482,
    "Õ": 2483,
    "Ö": 2484,
    "×": 2485,
    "Ø": 2486,
    "Ù": 2487,
    "Ú": 2488,
    "Û": 2489,
    "Ü": 2490,
    "Ý": 2491,
    "Þ": 2492,
    "ß": 2493,
    "à": 2494,
    "á": 2495,
    "â": 2496,
    "ã": 2497,
    "ä": 2498,
    "å": 2499,
    "æ": 2500,
    "ç": 2501,
    "è": 2502,
    "é": 2503,
    "ê": 2504,
    "ë": 2505,
    "ì": 2506,
    "í": 2507,
    "î": 2508,
    "ï": 2509,
    "ð": 2510,
    "ñ": 2511,
    "ò": 2512,
    "ó": 2513,
    "ô": 2514,
    "õ": 2515,
    "ö": 2516,
    "÷": 2517,
    "ø": 2518,
    "ù": 2519,
    "ú": 2520,
    "û": 2521,
    "ü": 2522,
    "ý": 2523,
    "þ": 2524,
    "ÿ": 2525,
    "Ā": 2526,
    "ā": 2527,
    "Ă": 2528,
    "ă": 2529,
    "ą": 2530,
    "Ć": 2531,
    "ć": 2532,
    "ĉ": 2533,
    "ċ": 2534,
    "Č": 2535,
    "č": 2536,
    "Ď": 2537,
    "ď": 2538,
    "Đ": 2539,
    "đ": 2540,
    "Ē": 2541,
    "ē": 2542,
    "ĕ": 2543,
    "Ė": 2544,
    "ė": 2545,
    "ę": 2546,
    "Ě": 2547,
    "ě": 2548,
    "ĝ": 2549,
    "ğ": 2550,
    "Ġ": 2551,
    "ġ": 2552,
    "Ħ": 2553,
    "ħ": 2554,
    "ĩ": 2555,
    "Ī": 2556,
    "ī": 2557,
    "ĭ": 2558,
    "į": 2559,
    "İ": 2560,
    "ı": 2561,
    "ķ": 2562,
    "ļ": 2563,
    "Ľ": 2564,
    "ľ": 2565,
    "Ł": 2566,
    "ł": 2567,
    "ń": 2568,
    "ņ": 2569,
    "ň": 2570,
    "ŋ": 2571,
    "Ō": 2572,
    "ō": 2573,
    "ŏ": 2574,
    "Ő": 2575,
    "ő": 2576,
    "Œ": 2577,
    "œ": 2578,
    "Ř": 2579,
    "ř": 2580,
    "Ś": 2581,
    "ś": 2582,
    "ŝ": 2583,
    "Ş": 2584,
    "ş": 2585,
    "Š": 2586,
    "š": 2587,
    "Ţ": 2588,
    "ţ": 2589,
    "Ť": 2590,
    "ť": 2591,
    "ũ": 2592,
    "ū": 2593,
    "ŭ": 2594,
    "ů": 2595,
    "Ű": 2596,
    "ű": 2597,
    "ų": 2598,
    "Ÿ": 2599,
    "Ź": 2600,
    "ź": 2601,
    "Ż": 2602,
    "ż": 2603,
    "Ž": 2604,
    "ž": 2605,
    "ſ": 2606,
    "Ə": 2607,
    "ƒ": 2608,
    "ơ": 2609,
    "ư": 2610,
    "ǎ": 2611,
    "ǐ": 2612,
    "ǒ": 2613,
    "ǔ": 2614,
    "ǚ": 2615,
    "ǧ": 2616,
    "ǫ": 2617,
    "Ș": 2618,
    "ș": 2619,
    "Ț": 2620,
    "ț": 2621,
    "ɐ": 2622,
    "ɑ": 2623,
    "ɒ": 2624,
    "ɔ": 2625,
    "ɕ": 2626,
    "ə": 2627,
    "ɛ": 2628,
    "ɡ": 2629,
    "ɣ": 2630,
    "ɨ": 2631,
    "ɪ": 2632,
    "ɫ": 2633,
    "ɯ": 2634,
    "ɲ": 2635,
    "ɵ": 2636,
    "ɹ": 2637,
    "ɾ": 2638,
    "ʀ": 2639,
    "ʁ": 2640,
    "ʂ": 2641,
    "ʃ": 2642,
    "ʊ": 2643,
    "ʋ": 2644,
    "ʌ": 2645,
    "ʎ": 2646,
    "ʐ": 2647,
    "ʑ": 2648,
    "ʒ": 2649,
    "ʔ": 2650,
    "ʰ": 2651,
    "ʲ": 2652,
    "ʷ": 2653,
    "ʹ": 2654,
    "ʻ": 2655,
    "ʼ": 2656,
    "ʾ": 2657,
    "ʿ": 2658,
    "ˆ": 2659,
    "ˇ": 2660,
    "ˈ": 2661,
    "ˉ": 2662,
    "ˊ": 2663,
    "ˋ": 2664,
    "ˌ": 2665,
    "ː": 2666,
    "˙": 2667,
    "˚": 2668,
    "˜": 2669,
    "ˠ": 2670,
    "̀": 2671,
    "́": 2672,
    "̂": 2673,
    "̃": 2674,
    "̄": 2675,
    "̈": 2676,
    "̌": 2677,
    "̍": 2678,
    "̣": 2679,
    "̥": 2680,
    "̩": 2681,
    "̪": 2682,
    "̯": 2683,
    "̱": 2684,
    "̲": 2685,
    "̶": 2686,
    "͒": 2687,
    "͓": 2688,
    "͘": 2689,
    "͡": 2690,
    "Ά": 2691,
    "Έ": 2692,
    "Α": 2693,
    "Β": 2694,
    "Γ": 2695,
    "Δ": 2696,
    "Ε": 2697,
    "Ζ": 2698,
    "Η": 2699,
    "Θ": 2700,
    "Ι": 2701,
    "Κ": 2702,
    "Λ": 2703,
    "Μ": 2704,
    "Ν": 2705,
    "Ξ": 2706,
    "Ο": 2707,
    "Π": 2708,
    "Ρ": 2709,
    "Σ": 2710,
    "Τ": 2711,
    "Υ": 2712,
    "Φ": 2713,
    "Χ": 2714,
    "Ψ": 2715,
    "Ω": 2716,
    "ά": 2717,
    "έ": 2718,
    "ή": 2719,
    "ί": 2720,
    "α": 2721,
    "β": 2722,
    "γ": 2723,
    "δ": 2724,
    "ε": 2725,
    "ζ": 2726,
    "η": 2727,
    "θ": 2728,
    "ι": 2729,
    "κ": 2730,
    "λ": 2731,
    "μ": 2732,
    "ν": 2733,
    "ξ": 2734,
    "ο": 2735,
    "π": 2736,
    "ρ": 2737,
    "ς": 2738,
    "σ": 2739,
    "τ": 2740,
    "υ": 2741,
    "φ": 2742,
    "χ": 2743,
    "ψ": 2744,
    "ω": 2745,
    "ϊ": 2746,
    "ό": 2747,
    "ύ": 2748,
    "ώ": 2749,
    "ϕ": 2750,
    "ϵ": 2751,
    "Ё": 2752,
    "Ђ": 2753,
    "Є": 2754,
    "І": 2755,
    "Ї": 2756,
    "Ј": 2757,
    "Љ": 2758,
    "Њ": 2759,
    "Ћ": 2760,
    "Џ": 2761,
    "А": 2762,
    "Б": 2763,
    "В": 2764,
    "Г": 2765,
    "Д": 2766,
    "Е": 2767,
    "Ж": 2768,
    "З": 2769,
    "И": 2770,
    "Й": 2771,
    "К": 2772,
    "Л": 2773,
    "М": 2774,
    "Н": 2775,
    "О": 2776,
    "П": 2777,
    "Р": 2778,
    "С": 2779,
    "Т": 2780,
    "У": 2781,
    "Ф": 2782,
    "Х": 2783,
    "Ц": 2784,
    "Ч": 2785,
    "Ш": 2786,
    "Щ": 2787,
    "Ъ": 2788,
    "Ы": 2789,
    "Ь": 2790,
    "Э": 2791,
    "Ю": 2792,
    "Я": 2793,
    "а": 2794,
    "б": 2795,
    "в": 2796,
    "г": 2797,
    "д": 2798,
    "е": 2799,
    "ж": 2800,
    "з": 2801,
    "и": 2802,
    "й": 2803,
    "к": 2804,
    "л": 2805,
    "м": 2806,
    "н": 2807,
    "о": 2808,
    "п": 2809,
    "р": 2810,
    "с": 2811,
    "т": 2812,
    "у": 2813,
    "ф": 2814,
    "х": 2815,
    "ц": 2816,
    "ч": 2817,
    "ш": 2818,
    "щ": 2819,
    "ъ": 2820,
    "ы": 2821,
    "ь": 2822,
    "э": 2823,
    "ю": 2824,
    "я": 2825,
    "ѐ": 2826,
    "ё": 2827,
    "ђ": 2828,
    "є": 2829,
    "і": 2830,
    "ї": 2831,
    "ј": 2832,
    "љ": 2833,
    "њ": 2834,
    "ћ": 2835,
    "ѝ": 2836,
    "ў": 2837,
    "џ": 2838,
    "ѣ": 2839,
    "ѫ": 2840,
    "Ґ": 2841,
    "ґ": 2842,
    "ғ": 2843,
    "Қ": 2844,
    "қ": 2845,
    "ҡ": 2846,
    "ң": 2847,
    "ү": 2848,
    "ұ": 2849,
    "ӏ": 2850,
    "ә": 2851,
    "ө": 2852,
    "Ա": 2853,
    "Հ": 2854,
    "Մ": 2855,
    "Ս": 2856,
    "ա": 2857,
    "բ": 2858,
    "գ": 2859,
    "դ": 2860,
    "ե": 2861,
    "զ": 2862,
    "թ": 2863,
    "ի": 2864,
    "լ": 2865,
    "կ": 2866,
    "հ": 2867,
    "ղ": 2868,
    "մ": 2869,
    "յ": 2870,
    "ն": 2871,
    "շ": 2872,
    "ո": 2873,
    "պ": 2874,
    "ս": 2875,
    "վ": 2876,
    "տ": 2877,
    "ր": 2878,
    "ց": 2879,
    "ւ": 2880,
    "ք": 2881,
    "ְ": 2882,
    "ִ": 2883,
    "ֵ": 2884,
    "ֶ": 2885,
    "ַ": 2886,
    "ָ": 2887,
    "ֹ": 2888,
    "ּ": 2889,
    "ׁ": 2890,
    "א": 2891,
    "ב": 2892,
    "ג": 2893,
    "ד": 2894,
    "ה": 2895,
    "ו": 2896,
    "ז": 2897,
    "ח": 2898,
    "ט": 2899,
    "י": 2900,
    "ך": 2901,
    "כ": 2902,
    "ל": 2903,
    "ם": 2904,
    "מ": 2905,
    "ן": 2906,
    "נ": 2907,
    "ס": 2908,
    "ע": 2909,
    "ף": 2910,
    "פ": 2911,
    "ץ": 2912,
    "צ": 2913,
    "ק": 2914,
    "ר": 2915,
    "ש": 2916,
    "ת": 2917,
    "،": 2918,
    "ء": 2919,
    "آ": 2920,
    "أ": 2921,
    "إ": 2922,
    "ئ": 2923,
    "ا": 2924,
    "ب": 2925,
    "ة": 2926,
    "ت": 2927,
    "ث": 2928,
    "ج": 2929,
    "ح": 2930,
    "خ": 2931,
    "د": 2932,
    "ذ": 2933,
    "ر": 2934,
    "ز": 2935,
    "س": 2936,
    "ش": 2937,
    "ص": 2938,
    "ض": 2939,
    "ط": 2940,
    "ظ": 2941,
    "ع": 2942,
    "غ": 2943,
    "ـ": 2944,
    "ف": 2945,
    "ق": 2946,
    "ك": 2947,
    "ل": 2948,
    "م": 2949,
    "ن": 2950,
    "ه": 2951,
    "و": 2952,
    "ى": 2953,
    "ي": 2954,
    "ً": 2955,
    "َ": 2956,
    "ُ": 2957,
    "ِ": 2958,
    "ّ": 2959,
    "ْ": 2960,
    "پ": 2961,
    "چ": 2962,
    "ک": 2963,
    "گ": 2964,
    "ھ": 2965,
    "ہ": 2966,
    "ی": 2967,
    "ے": 2968,
    "ە": 2969,
    "ܐ": 2970,
    "ܝ": 2971,
    "߬": 2972,
    "b'\\xe0\\xa4'": 2973,
    "b'\\xe0\\xa5'": 2974,
    "b'\\xe0\\xa6'": 2975,
    "b'\\xe0\\xa7'": 2976,
    "b'\\xe0\\xa8'": 2977,
    "b'\\xe0\\xa9'": 2978,
    "b'\\xe0\\xaa'": 2979,
    "b'\\xe0\\xab'": 2980,
    "b'\\xe0\\xac'": 2981,
    "b'\\xe0\\xae'": 2982,
    "b'\\xe0\\xaf'": 2983,
    "b'\\xe0\\xb0'": 2984,
    "b'\\xe0\\xb1'": 2985,
    "b'\\xe0\\xb2'": 2986,
    "b'\\xe0\\xb3'": 2987,
    "b'\\xe0\\xb4'": 2988,
    "b'\\xe0\\xb5'": 2989,
    "b'\\xe0\\xb6'": 2990,
    "b'\\xe0\\xb7'": 2991,
    "b'\\xe0\\xb8'": 2992,
    "b'\\xe0\\xb9'": 2993,
    "b'\\xe0\\xba'": 2994,
    "b'\\xe0\\xbc'": 2995,
    "b'\\xe0\\xbd'": 2996,
    "b'\\xe1\\x80'": 2997,
    "b'\\xe1\\x83'": 2998,
    "b'\\xe1\\x9e'": 2999,
    "b'\\xe1\\x9f'": 3000,
    "b'\\xe1\\xb8'": 3001,
    "b'\\xe1\\xb9'": 3002,
    "b'\\xe1\\xba'": 3003,
    "b'\\xe1\\xbb'": 3004,
    "b'\\xe1\\xbd'": 3005,
    "b'\\xe2\\x80'": 3006,
    "b'\\xe2\\x81'": 3007,
    "b'\\xe2\\x82'": 3008,
    "b'\\xe2\\x84'": 3009,
    "b'\\xe2\\x86'": 3010,
    "b'\\xe2\\x88'": 3011,
    "b'\\xe2\\x89'": 3012,
    "b'\\xe2\\x94'": 3013,
    "b'\\xe2\\x95'": 3014,
    "b'\\xe2\\x96'": 3015,
    "b'\\xe2\\x97'": 3016,
    "b'\\xe2\\x98'": 3017,
    "b'\\xe2\\x99'": 3018,
    "b'\\xe2\\x9c'": 3019,
    "b'\\xe2\\x9d'": 3020,
    "b'\\xe3\\x80'": 3021,
    "b'\\xe3\\x81'": 3022,
    "b'\\xe3\\x82'": 3023,
    "b'\\xe3\\x83'": 3024,
    "b'\\xe4\\xb8'": 3025,
    "b'\\xe4\\xb9'": 3026,
    "b'\\xe4\\xba'": 3027,
    "b'\\xe4\\xbb'": 3028,
    "b'\\xe4\\xbc'": 3029,
    "b'\\xe4\\xbd'": 3030,
    "b'\\xe4\\xbe'": 3031,
    "b'\\xe4\\xbf'": 3032,
    "b'\\xe5\\x80'": 3033,
    "b'\\xe5\\x81'": 3034,
    "b'\\xe5\\x82'": 3035,
    "b'\\xe5\\x83'": 3036,
    "b'\\xe5\\x84'": 3037,
    "b'\\xe5\\x85'": 3038,
    "b'\\xe5\\x86'": 3039,
    "b'\\xe5\\x87'": 3040,
    "b'\\xe5\\x88'": 3041,
    "b'\\xe5\\x89'": 3042,
    "b'\\xe5\\x8a'": 3043,
    "b'\\xe5\\x8b'": 3044,
    "b'\\xe5\\x8c'": 3045,
    "b'\\xe5\\x8d'": 3046,
    "b'\\xe5\\x8e'": 3047,
    "b'\\xe5\\x8f'": 3048,
    "b'\\xe5\\x90'": 3049,
    "b'\\xe5\\x91'": 3050,
    "b'\\xe5\\x92'": 3051,
    "b'\\xe5\\x93'": 3052,
    "b'\\xe5\\x94'": 3053,
    "b'\\xe5\\x95'": 3054,
    "b'\\xe5\\x96'": 3055,
    "b'\\xe5\\x99'": 3056,
    "b'\\xe5\\x9b'": 3057,
    "b'\\xe5\\x9c'": 3058,
    "b'\\xe5\\x9d'": 3059,
    "b'\\xe5\\x9e'": 3060,
    "b'\\xe5\\x9f'": 3061,
    "b'\\xe5\\xa0'": 3062,
    "b'\\xe5\\xa1'": 3063,
    "b'\\xe5\\xa2'": 3064,
    "b'\\xe5\\xa3'": 3065,
    "b'\\xe5\\xa4'": 3066,
    "b'\\xe5\\xa5'": 3067,
    "b'\\xe5\\xa6'": 3068,
    "b'\\xe5\\xa7'": 3069,
    "b'\\xe5\\xad'": 3070,
    "b'\\xe5\\xae'": 3071,
    "b'\\xe5\\xaf'": 3072,
    "b'\\xe5\\xb0'": 3073,
    "b'\\xe5\\xb1'": 3074,
    "b'\\xe5\\xb2'": 3075,
    "b'\\xe5\\xb7'": 3076,
    "b'\\xe5\\xb8'": 3077,
    "b'\\xe5\\xb9'": 3078,
    "b'\\xe5\\xba'": 3079,
    "b'\\xe5\\xbb'": 3080,
    "b'\\xe5\\xbc'": 3081,
    "b'\\xe5\\xbd'": 3082,
    "b'\\xe5\\xbe'": 3083,
    "b'\\xe5\\xbf'": 3084,
    "b'\\xe6\\x80'": 3085,
    "b'\\xe6\\x81'": 3086,
    "b'\\xe6\\x82'": 3087,
    "b'\\xe6\\x83'": 3088,
    "b'\\xe6\\x84'": 3089,
    "b'\\xe6\\x85'": 3090,
    "b'\\xe6\\x88'": 3091,
    "b'\\xe6\\x89'": 3092,
    "b'\\xe6\\x8a'": 3093,
    "b'\\xe6\\x8b'": 3094,
    "b'\\xe6\\x8c'": 3095,
    "b'\\xe6\\x8d'": 3096,
    "b'\\xe6\\x8e'": 3097,
    "b'\\xe6\\x8f'": 3098,
    "b'\\xe6\\x91'": 3099,
    "b'\\xe6\\x92'": 3100,
    "b'\\xe6\\x93'": 3101,
    "b'\\xe6\\x94'": 3102,
    "b'\\xe6\\x95'": 3103,
    "b'\\xe6\\x96'": 3104,
    "b'\\xe6\\x97'": 3105,
    "b'\\xe6\\x98'": 3106,
    "b'\\xe6\\x99'": 3107,
    "b'\\xe6\\x9a'": 3108,
    "b'\\xe6\\x9b'": 3109,
    "b'\\xe6\\x9c'": 3110,
    "b'\\xe6\\x9d'": 3111,
    "b'\\xe6\\x9e'": 3112,
    "b'\\xe6\\x9f'": 3113,
    "b'\\xe6\\xa0'": 3114,
    "b'\\xe6\\xa1'": 3115,
    "b'\\xe6\\xa2'": 3116,
    "b'\\xe6\\xa3'": 3117,
    "b'\\xe6\\xa5'": 3118,
    "b'\\xe6\\xa7'": 3119,
    "b'\\xe6\\xa8'": 3120,
    "b'\\xe6\\xa9'": 3121,
    "b'\\xe6\\xac'": 3122,
    "b'\\xe6\\xad'": 3123,
    "b'\\xe6\\xae'": 3124,
    "b'\\xe6\\xaf'": 3125,
    "b'\\xe6\\xb0'": 3126,
    "b'\\xe6\\xb1'": 3127,
    "b'\\xe6\\xb2'": 3128,
    "b'\\xe6\\xb3'": 3129,
    "b'\\xe6\\xb4'": 3130,
    "b'\\xe6\\xb5'": 3131,
    "b'\\xe6\\xb6'": 3132,
    "b'\\xe6\\xb7'": 3133,
    "b'\\xe6\\xb8'": 3134,
    "b'\\xe6\\xb9'": 3135,
    "b'\\xe6\\xba'": 3136,
    "b'\\xe6\\xbb'": 3137,
    "b'\\xe6\\xbc'": 3138,
    "b'\\xe7\\x81'": 3139,
    "b'\\xe7\\x82'": 3140,
    "b'\\xe7\\x84'": 3141,
    "b'\\xe7\\x88'": 3142,
    "b'\\xe7\\x89'": 3143,
    "b'\\xe7\\x8a'": 3144,
    "b'\\xe7\\x8e'": 3145,
    "b'\\xe7\\x8f'": 3146,
    "b'\\xe7\\x90'": 3147,
    "b'\\xe7\\x94'": 3148,
    "b'\\xe7\\x95'": 3149,
    "b'\\xe7\\x97'": 3150,
    "b'\\xe7\\x99'": 3151,
    "b'\\xe7\\x9a'": 3152,
    "b'\\xe7\\x9b'": 3153,
    "b'\\xe7\\x9c'": 3154,
    "b'\\xe7\\x9d'": 3155,
    "b'\\xe7\\x9f'": 3156,
    "b'\\xe7\\xa0'": 3157,
    "b'\\xe7\\xa1'": 3158,
    "b'\\xe7\\xa2'": 3159,
    "b'\\xe7\\xa4'": 3160,
    "b'\\xe7\\xa5'": 3161,
    "b'\\xe7\\xa6'": 3162,
    "b'\\xe7\\xa7'": 3163,
    "b'\\xe7\\xa8'": 3164,
    "b'\\xe7\\xa9'": 3165,
    "b'\\xe7\\xaa'": 3166,
    "b'\\xe7\\xab'": 3167,
    "b'\\xe7\\xac'": 3168,
    "b'\\xe7\\xad'": 3169,
    "b'\\xe7\\xae'": 3170,
    "b'\\xe7\\xaf'": 3171,
    "b'\\xe7\\xb1'": 3172,
    "b'\\xe7\\xb2'": 3173,
    "b'\\xe7\\xb3'": 3174,
    "b'\\xe7\\xb4'": 3175,
    "b'\\xe7\\xb5'": 3176,
    "b'\\xe7\\xb6'": 3177,
    "b'\\xe7\\xb7'": 3178,
    "b'\\xe7\\xba'": 3179,
    "b'\\xe7\\xbb'": 3180,
    "b'\\xe7\\xbc'": 3181,
    "b'\\xe7\\xbd'": 3182,
    "b'\\xe7\\xbe'": 3183,
    "b'\\xe7\\xbf'": 3184,
    "b'\\xe8\\x80'": 3185,
    "b'\\xe8\\x81'": 3186,
    "b'\\xe8\\x82'": 3187,
    "b'\\xe8\\x83'": 3188,
    "b'\\xe8\\x84'": 3189,
    "b'\\xe8\\x87'": 3190,
    "b'\\xe8\\x88'": 3191,
    "b'\\xe8\\x89'": 3192,
    "b'\\xe8\\x8a'": 3193,
    "b'\\xe8\\x8b'": 3194,
    "b'\\xe8\\x8c'": 3195,
    "b'\\xe8\\x8d'": 3196,
    "b'\\xe8\\x8e'": 3197,
    "b'\\xe8\\x90'": 3198,
    "b'\\xe8\\x99'": 3199,
    "b'\\xe8\\xa1'": 3200,
    "b'\\xe8\\xa2'": 3201,
    "b'\\xe8\\xa3'": 3202,
    "b'\\xe8\\xa6'": 3203,
    "b'\\xe8\\xa7'": 3204,
    "b'\\xe8\\xa8'": 3205,
    "b'\\xe8\\xa9'": 3206,
    "b'\\xe8\\xaa'": 3207,
    "b'\\xe8\\xab'": 3208,
    "b'\\xe8\\xad'": 3209,
    "b'\\xe8\\xae'": 3210,
    "b'\\xe8\\xaf'": 3211,
    "b'\\xe8\\xb0'": 3212,
    "b'\\xe8\\xb1'": 3213,
    "b'\\xe8\\xb2'": 3214,
    "b'\\xe8\\xb3'": 3215,
    "b'\\xe8\\xb4'": 3216,
    "b'\\xe8\\xb5'": 3217,
    "b'\\xe8\\xb6'": 3218,
    "b'\\xe8\\xb7'": 3219,
    "b'\\xe8\\xba'": 3220,
    "b'\\xe8\\xbb'": 3221,
    "b'\\xe8\\xbc'": 3222,
    "b'\\xe8\\xbd'": 3223,
    "b'\\xe8\\xbe'": 3224,
    "b'\\xe8\\xbf'": 3225,
    "b'\\xe9\\x80'": 3226,
    "b'\\xe9\\x81'": 3227,
    "b'\\xe9\\x82'": 3228,
    "b'\\xe9\\x83'": 3229,
    "b'\\xe9\\x85'": 3230,
    "b'\\xe9\\x87'": 3231,
    "b'\\xe9\\x8c'": 3232,
    "b'\\xe9\\x92'": 3233,
    "b'\\xe9\\x93'": 3234,
    "b'\\xe9\\x94'": 3235,
    "b'\\xe9\\x95'": 3236,
    "b'\\xe9\\x96'": 3237,
    "b'\\xe9\\x97'": 3238,
    "b'\\xe9\\x98'": 3239,
    "b'\\xe9\\x99'": 3240,
    "b'\\xe9\\x9a'": 3241,
    "b'\\xe9\\x9b'": 3242,
    "b'\\xe9\\x9c'": 3243,
    "b'\\xe9\\x9d'": 3244,
    "b'\\xe9\\x9f'": 3245,
    "b'\\xe9\\xa0'": 3246,
    "b'\\xe9\\xa1'": 3247,
    "b'\\xe9\\xa2'": 3248,
    "b'\\xe9\\xa3'": 3249,
    "b'\\xe9\\xa6'": 3250,
    "b'\\xe9\\xa9'": 3251,
    "b'\\xe9\\xaa'": 3252,
    "b'\\xe9\\xab'": 3253,
    "b'\\xe9\\xbb'": 3254,
    "b'\\xe9\\xbe'": 3255,
    "b'\\xea\\xb0'": 3256,
    "b'\\xea\\xb1'": 3257,
    "b'\\xea\\xb2'": 3258,
    "b'\\xea\\xb3'": 3259,
    "b'\\xea\\xb5'": 3260,
    "b'\\xea\\xb7'": 3261,
    "b'\\xea\\xb8'": 3262,
    "b'\\xea\\xb9'": 3263,
    "b'\\xeb\\x82'": 3264,
    "b'\\xeb\\x84'": 3265,
    "b'\\xeb\\x85'": 3266,
    "b'\\xeb\\x8a'": 3267,
    "b'\\xeb\\x8b'": 3268,
    "b'\\xeb\\x8d'": 3269,
    "b'\\xeb\\x8f'": 3270,
    "b'\\xeb\\x90'": 3271,
    "b'\\xeb\\x93'": 3272,
    "b'\\xeb\\x9e'": 3273,
    "b'\\xeb\\x9f'": 3274,
    "b'\\xeb\\xa0'": 3275,
    "b'\\xeb\\xa1'": 3276,
    "b'\\xeb\\xa3'": 3277,
    "b'\\xeb\\xa5'": 3278,
    "b'\\xeb\\xa6'": 3279,
    "b'\\xeb\\xa7'": 3280,
    "b'\\xeb\\xa9'": 3281,
    "b'\\xeb\\xaa'": 3282,
    "b'\\xeb\\xb0'": 3283,
    "b'\\xeb\\xb2'": 3284,
    "b'\\xeb\\xb3'": 3285,
    "b'\\xeb\\xb6'": 3286,
    "b'\\xec\\x83'": 3287,
    "b'\\xec\\x84'": 3288,
    "b'\\xec\\x85'": 3289,
    "b'\\xec\\x86'": 3290,
    "b'\\xec\\x8a'": 3291,
    "b'\\xec\\x8b'": 3292,
    "b'\\xec\\x95'": 3293,
    "b'\\xec\\x96'": 3294,
    "b'\\xec\\x97'": 3295,
    "b'\\xec\\x98'": 3296,
    "b'\\xec\\x99'": 3297,
    "b'\\xec\\x9a'": 3298,
    "b'\\xec\\x9b'": 3299,
    "b'\\xec\\x9c'": 3300,
    "b'\\xec\\x9d'": 3301,
    "b'\\xec\\x9e'": 3302,
    "b'\\xec\\xa0'": 3303,
    "b'\\xec\\xa7'": 3304,
    "b'\\xec\\xb0'": 3305,
    "b'\\xec\\xb2'": 3306,
    "b'\\xec\\xb9'": 3307,
    "b'\\xed\\x83'": 3308,
    "b'\\xed\\x8a'": 3309,
    "b'\\xed\\x8c'": 3310,
    "b'\\xed\\x95'": 3311,
    "b'\\xed\\x98'": 3312,
    "b'\\xed\\x99'": 3313,
    "b'\\xef\\xb8'": 3314,
    "b'\\xef\\xbc'": 3315,
    "b'\\xef\\xbd'": 3316,
    "b'\\xef\\xbf'": 3317,
    "b'\\xf0\\x9d'": 3318,
    "b'\\xf0\\x9f'": 3319,
    "\\t\\t\\t": 3320,
    "\\t\\t\\n": 3321,
    "\\t\\t ": 3322,
    "\\t  ": 3323,
    "\\n\\t\\t": 3324,
    "\\n\\t\\n": 3325,
    "\\n\\t ": 3326,
    "\\n\\n\\t": 3327,
    "\\n\\n\\n": 3328,
    "\\n\\n ": 3329,
    "\\n \\n": 3330,
    "\\n  ": 3331,
    "\\r\\n\\t": 3332,
    "\\r\\n ": 3333,
    " \\t\\t": 3334,
    " \\n\\t": 3335,
    " \\n\\n": 3336,
    " \\n ": 3337,
    " \\r\\n": 3338,
    "  \\n": 3339,
    "   ": 3340,
    " !!": 3341,
    " !(": 3342,
    " !=": 3343,
    " \"\"": 3344,
    " \"#": 3345,
    " \"$": 3346,
    " \"%": 3347,
    " \"&": 3348,
    " \"\\'": 3349,
    " \"(": 3350,
    " \")": 3351,
    " \"*": 3352,
    " \"+": 3353,
    " \",": 3354,
    " \"-": 3355,
    " \".": 3356,
    " \"/": 3357,
    " \":": 3358,
    " \";": 3359,
    " \"<": 3360,
    " \">": 3361,
    " \"@": 3362,
    " \"[": 3363,
    " \"\\\\": 3364,
    " \"]": 3365,
    " \"^": 3366,
    " \"_": 3367,
    " \"`": 3368,
    " \"{": 3369,
    " \"~": 3370,
    " #\"": 3371,
    " ##": 3372,
    " #(": 3373,
    " #:": 3374,
    " #[": 3375,
    " #{": 3376,
    " $$": 3377,
    " $(": 3378,
    " $,": 3379,
    " $.": 3380,
    " $\\\\": 3381,
    " $_": 3382,
    " ${": 3383,
    " %%": 3384,
    " %.": 3385,
    " %>": 3386,
    " %{": 3387,
    " %}": 3388,
    " &#": 3389,
    " &$": 3390,
    " &&": 3391,
    " &=": 3392,
    " \\'\"": 3393,
    " '#": 3394,
    " '$": 3395,
    " '%": 3396,
    " '&": 3397,
    " ''": 3398,
    " ')": 3399,
    " '*": 3400,
    " '+": 3401,
    " ',": 3402,
    " '-": 3403,
    " '.": 3404,
    " '/": 3405,
    " ':": 3406,
    " ';": 3407,
    " '<": 3408,
    " '@": 3409,
    " '[": 3410,
    " '\\\\": 3411,
    " '_": 3412,
    " '{": 3413,
    " (!": 3414,
    " (\"": 3415,
    " (#": 3416,
    " ($": 3417,
    " (%": 3418,
    " (&": 3419,
    " ('": 3420,
    " ((": 3421,
    " ()": 3422,
    " (*": 3423,
    " (+": 3424,
    " (-": 3425,
    " (.": 3426,
    " (/": 3427,
    " (:": 3428,
    " (;": 3429,
    " (<": 3430,
    " (=": 3431,
    " (>": 3432,
    " (?": 3433,
    " (@": 3434,
    " ([": 3435,
    " (\\\\": 3436,
    " (_": 3437,
    " (`": 3438,
    " ({": 3439,
    " ))": 3440,
    " ),": 3441,
    " ).": 3442,
    " ):": 3443,
    " );": 3444,
    " ){": 3445,
    " *(": 3446,
    " *)": 3447,
    " **": 3448,
    " *,": 3449,
    " *.": 3450,
    " */": 3451,
    " *=": 3452,
    " *[": 3453,
    " +\"": 3454,
    " ++": 3455,
    " +=": 3456,
    " +\\\\": 3457,
    " ,\"": 3458,
    " -(": 3459,
    " --": 3460,
    " -.": 3461,
    " -=": 3462,
    " ->": 3463,
    " .\"": 3464,
    " ..": 3465,
    " ./": 3466,
    " .=": 3467,
    " /*": 3468,
    " //": 3469,
    " /=": 3470,
    " />": 3471,
    " /\\\\": 3472,
    " 00": 3473,
    " 01": 3474,
    " 02": 3475,
    " 03": 3476,
    " 04": 3477,
    " 05": 3478,
    " 06": 3479,
    " 07": 3480,
    " 08": 3481,
    " 09": 3482,
    " 10": 3483,
    " 11": 3484,
    " 12": 3485,
    " 13": 3486,
    " 14": 3487,
    " 15": 3488,
    " 16": 3489,
    " 17": 3490,
    " 18": 3491,
    " 19": 3492,
    " 20": 3493,
    " 21": 3494,
    " 22": 3495,
    " 23": 3496,
    " 24": 3497,
    " 25": 3498,
    " 26": 3499,
    " 27": 3500,
    " 28": 3501,
    " 29": 3502,
    " 30": 3503,
    " 31": 3504,
    " 32": 3505,
    " 33": 3506,
    " 34": 3507,
    " 35": 3508,
    " 36": 3509,
    " 37": 3510,
    " 38": 3511,
    " 39": 3512,
    " 40": 3513,
    " 41": 3514,
    " 42": 3515,
    " 43": 3516,
    " 44": 3517,
    " 45": 3518,
    " 46": 3519,
    " 47": 3520,
    " 48": 3521,
    " 49": 3522,
    " 50": 3523,
    " 51": 3524,
    " 52": 3525,
    " 53": 3526,
    " 54": 3527,
    " 55": 3528,
    " 56": 3529,
    " 57": 3530,
    " 58": 3531,
    " 59": 3532,
    " 60": 3533,
    " 61": 3534,
    " 62": 3535,
    " 63": 3536,
    " 64": 3537,
    " 65": 3538,
    " 66": 3539,
    " 67": 3540,
    " 68": 3541,
    " 69": 3542,
    " 70": 3543,
    " 71": 3544,
    " 72": 3545,
    " 73": 3546,
    " 74": 3547,
    " 75": 3548,
    " 76": 3549,
    " 77": 3550,
    " 78": 3551,
    " 79": 3552,
    " 80": 3553,
    " 81": 3554,
    " 82": 3555,
    " 83": 3556,
    " 84": 3557,
    " 85": 3558,
    " 86": 3559,
    " 87": 3560,
    " 88": 3561,
    " 89": 3562,
    " 90": 3563,
    " 91": 3564,
    " 92": 3565,
    " 93": 3566,
    " 94": 3567,
    " 95": 3568,
    " 96": 3569,
    " 97": 3570,
    " 98": 3571,
    " 99": 3572,
    " :\"": 3573,
    " :(": 3574,
    " :)": 3575,
    " :-": 3576,
    " ::": 3577,
    " :=": 3578,
    " ;)": 3579,
    " ;;": 3580,
    " <!": 3581,
    " <%": 3582,
    " <-": 3583,
    " </": 3584,
    " <<": 3585,
    " <=": 3586,
    " <>": 3587,
    " <?": 3588,
    " =\"": 3589,
    " ==": 3590,
    " =>": 3591,
    " =\\\\": 3592,
    " =~": 3593,
    " >=": 3594,
    " >>": 3595,
    " ?,": 3596,
    " ?>": 3597,
    " ??": 3598,
    " @\"": 3599,
    " @@": 3600,
    " AA": 3601,
    " AB": 3602,
    " AC": 3603,
    " AD": 3604,
    " AE": 3605,
    " AF": 3606,
    " AG": 3607,
    " AH": 3608,
    " AI": 3609,
    " AJ": 3610,
    " AK": 3611,
    " AL": 3612,
    " AM": 3613,
    " AN": 3614,
    " AO": 3615,
    " AP": 3616,
    " AQ": 3617,
    " AR": 3618,
    " AS": 3619,
    " AT": 3620,
    " AU": 3621,
    " AV": 3622,
    " AW": 3623,
    " AX": 3624,
    " AZ": 3625,
    " Ab": 3626,
    " Ac": 3627,
    " Ad": 3628,
    " Af": 3629,
    " Ag": 3630,
    " Ah": 3631,
    " Ai": 3632,
    " Aj": 3633,
    " Ak": 3634,
    " Al": 3635,
    " Am": 3636,
    " An": 3637,
    " Ao": 3638,
    " Ap": 3639,
    " Ar": 3640,
    " As": 3641,
    " At": 3642,
    " Au": 3643,
    " Av": 3644,
    " Aw": 3645,
    " Ax": 3646,
    " Ay": 3647,
    " Az": 3648,
    " BA": 3649,
    " BB": 3650,
    " BC": 3651,
    " BD": 3652,
    " BE": 3653,
    " BF": 3654,
    " BG": 3655,
    " BH": 3656,
    " BI": 3657,
    " BJ": 3658,
    " BL": 3659,
    " BM": 3660,
    " BN": 3661,
    " BO": 3662,
    " BP": 3663,
    " BR": 3664,
    " BS": 3665,
    " BT": 3666,
    " BU": 3667,
    " BV": 3668,
    " BW": 3669,
    " BY": 3670,
    " Ba": 3671,
    " Bd": 3672,
    " Be": 3673,
    " Bh": 3674,
    " Bi": 3675,
    " Bj": 3676,
    " Bl": 3677,
    " Bo": 3678,
    " Br": 3679,
    " Bu": 3680,
    " By": 3681,
    " CA": 3682,
    " CB": 3683,
    " CC": 3684,
    " CD": 3685,
    " CE": 3686,
    " CF": 3687,
    " CG": 3688,
    " CH": 3689,
    " CI": 3690,
    " CJ": 3691,
    " CK": 3692,
    " CL": 3693,
    " CM": 3694,
    " CN": 3695,
    " CO": 3696,
    " CP": 3697,
    " CR": 3698,
    " CS": 3699,
    " CT": 3700,
    " CU": 3701,
    " CV": 3702,
    " CW": 3703,
    " CX": 3704,
    " CY": 3705,
    " Ca": 3706,
    " Cd": 3707,
    " Ce": 3708,
    " Cf": 3709,
    " Ch": 3710,
    " Ci": 3711,
    " Cl": 3712,
    " Co": 3713,
    " Cp": 3714,
    " Cr": 3715,
    " Cs": 3716,
    " Ct": 3717,
    " Cu": 3718,
    " Cy": 3719,
    " Cz": 3720,
    " DA": 3721,
    " DB": 3722,
    " DC": 3723,
    " DD": 3724,
    " DE": 3725,
    " DF": 3726,
    " DG": 3727,
    " DH": 3728,
    " DI": 3729,
    " DJ": 3730,
    " DK": 3731,
    " DL": 3732,
    " DM": 3733,
    " DN": 3734,
    " DO": 3735,
    " DP": 3736,
    " DR": 3737,
    " DS": 3738,
    " DT": 3739,
    " DU": 3740,
    " DV": 3741,
    " DW": 3742,
    " DX": 3743,
    " Da": 3744,
    " Db": 3745,
    " De": 3746,
    " Dh": 3747,
    " Di": 3748,
    " Dj": 3749,
    " Do": 3750,
    " Dr": 3751,
    " Du": 3752,
    " Dw": 3753,
    " Dy": 3754,
    " EA": 3755,
    " EB": 3756,
    " EC": 3757,
    " ED": 3758,
    " EE": 3759,
    " EF": 3760,
    " EG": 3761,
    " EH": 3762,
    " EL": 3763,
    " EM": 3764,
    " EN": 3765,
    " EO": 3766,
    " EP": 3767,
    " EQ": 3768,
    " ER": 3769,
    " ES": 3770,
    " ET": 3771,
    " EU": 3772,
    " EV": 3773,
    " EW": 3774,
    " EX": 3775,
    " Eb": 3776,
    " Ec": 3777,
    " Ed": 3778,
    " Eg": 3779,
    " Eh": 3780,
    " Ej": 3781,
    " Ek": 3782,
    " El": 3783,
    " Em": 3784,
    " En": 3785,
    " Ep": 3786,
    " Eq": 3787,
    " Er": 3788,
    " Es": 3789,
    " Et": 3790,
    " Eu": 3791,
    " Ev": 3792,
    " Ex": 3793,
    " Ey": 3794,
    " Ez": 3795,
    " FA": 3796,
    " FB": 3797,
    " FC": 3798,
    " FD": 3799,
    " FE": 3800,
    " FF": 3801,
    " FG": 3802,
    " FH": 3803,
    " FI": 3804,
    " FK": 3805,
    " FL": 3806,
    " FM": 3807,
    " FN": 3808,
    " FO": 3809,
    " FP": 3810,
    " FR": 3811,
    " FS": 3812,
    " FT": 3813,
    " FW": 3814,
    " FX": 3815,
    " FY": 3816,
    " Fa": 3817,
    " Fe": 3818,
    " Fi": 3819,
    " Fl": 3820,
    " Fo": 3821,
    " Fr": 3822,
    " Ft": 3823,
    " Fu": 3824,
    " GA": 3825,
    " GB": 3826,
    " GC": 3827,
    " GD": 3828,
    " GE": 3829,
    " GF": 3830,
    " GG": 3831,
    " GH": 3832,
    " GI": 3833,
    " GL": 3834,
    " GM": 3835,
    " GN": 3836,
    " GO": 3837,
    " GP": 3838,
    " GR": 3839,
    " GS": 3840,
    " GT": 3841,
    " GU": 3842,
    " GV": 3843,
    " GW": 3844,
    " Ga": 3845,
    " Ge": 3846,
    " Gh": 3847,
    " Gi": 3848,
    " Gl": 3849,
    " Gn": 3850,
    " Go": 3851,
    " Gr": 3852,
    " Gu": 3853,
    " Gy": 3854,
    " HA": 3855,
    " HB": 3856,
    " HC": 3857,
    " HD": 3858,
    " HE": 3859,
    " HF": 3860,
    " HG": 3861,
    " HH": 3862,
    " HI": 3863,
    " HK": 3864,
    " HL": 3865,
    " HM": 3866,
    " HO": 3867,
    " HP": 3868,
    " HQ": 3869,
    " HR": 3870,
    " HS": 3871,
    " HT": 3872,
    " HU": 3873,
    " HV": 3874,
    " HW": 3875,
    " HY": 3876,
    " Ha": 3877,
    " He": 3878,
    " Hg": 3879,
    " Hi": 3880,
    " Ho": 3881,
    " Hu": 3882,
    " Hy": 3883,
    " Hz": 3884,
    " IA": 3885,
    " IB": 3886,
    " IC": 3887,
    " ID": 3888,
    " IE": 3889,
    " IF": 3890,
    " IG": 3891,
    " II": 3892,
    " IK": 3893,
    " IL": 3894,
    " IM": 3895,
    " IN": 3896,
    " IO": 3897,
    " IP": 3898,
    " IQ": 3899,
    " IR": 3900,
    " IS": 3901,
    " IT": 3902,
    " IU": 3903,
    " IV": 3904,
    " IX": 3905,
    " Ib": 3906,
    " Id": 3907,
    " If": 3908,
    " Ig": 3909,
    " Ik": 3910,
    " Il": 3911,
    " Im": 3912,
    " In": 3913,
    " Io": 3914,
    " Ip": 3915,
    " Ir": 3916,
    " Is": 3917,
    " It": 3918,
    " Iv": 3919,
    " Iz": 3920,
    " JA": 3921,
    " JC": 3922,
    " JD": 3923,
    " JE": 3924,
    " JJ": 3925,
    " JM": 3926,
    " JO": 3927,
    " JP": 3928,
    " JR": 3929,
    " JS": 3930,
    " JU": 3931,
    " Ja": 3932,
    " Je": 3933,
    " Ji": 3934,
    " Jo": 3935,
    " Jr": 3936,
    " Ju": 3937,
    " KA": 3938,
    " KB": 3939,
    " KC": 3940,
    " KD": 3941,
    " KE": 3942,
    " KG": 3943,
    " KH": 3944,
    " KK": 3945,
    " KL": 3946,
    " KM": 3947,
    " KN": 3948,
    " KO": 3949,
    " KP": 3950,
    " KR": 3951,
    " KS": 3952,
    " KT": 3953,
    " KY": 3954,
    " Ka": 3955,
    " Ke": 3956,
    " Kh": 3957,
    " Ki": 3958,
    " Kl": 3959,
    " Kn": 3960,
    " Ko": 3961,
    " Kr": 3962,
    " Ku": 3963,
    " Kw": 3964,
    " Ky": 3965,
    " LA": 3966,
    " LB": 3967,
    " LC": 3968,
    " LD": 3969,
    " LE": 3970,
    " LF": 3971,
    " LG": 3972,
    " LH": 3973,
    " LI": 3974,
    " LL": 3975,
    " LM": 3976,
    " LN": 3977,
    " LO": 3978,
    " LP": 3979,
    " LR": 3980,
    " LS": 3981,
    " LT": 3982,
    " LU": 3983,
    " LV": 3984,
    " LW": 3985,
    " LX": 3986,
    " La": 3987,
    " Le": 3988,
    " Li": 3989,
    " Ll": 3990,
    " Lo": 3991,
    " Lt": 3992,
    " Lu": 3993,
    " Lv": 3994,
    " Ly": 3995,
    " MA": 3996,
    " MB": 3997,
    " MC": 3998,
    " MD": 3999,
    " ME": 4000,
    " MF": 4001,
    " MG": 4002,
    " MH": 4003,
    " MI": 4004,
    " MJ": 4005,
    " MK": 4006,
    " ML": 4007,
    " MM": 4008,
    " MN": 4009,
    " MO": 4010,
    " MP": 4011,
    " MQ": 4012,
    " MR": 4013,
    " MS": 4014,
    " MT": 4015,
    " MU": 4016,
    " MV": 4017,
    " MW": 4018,
    " MX": 4019,
    " MY": 4020,
    " Ma": 4021,
    " Mb": 4022,
    " Mc": 4023,
    " Md": 4024,
    " Me": 4025,
    " Mg": 4026,
    " Mi": 4027,
    " Mk": 4028,
    " Mn": 4029,
    " Mo": 4030,
    " Mr": 4031,
    " Ms": 4032,
    " Mt": 4033,
    " Mu": 4034,
    " My": 4035,
    " NA": 4036,
    " NB": 4037,
    " NC": 4038,
    " ND": 4039,
    " NE": 4040,
    " NF": 4041,
    " NG": 4042,
    " NH": 4043,
    " NI": 4044,
    " NJ": 4045,
    " NK": 4046,
    " NL": 4047,
    " NM": 4048,
    " NN": 4049,
    " NO": 4050,
    " NP": 4051,
    " NR": 4052,
    " NS": 4053,
    " NT": 4054,
    " NU": 4055,
    " NV": 4056,
    " NW": 4057,
    " NY": 4058,
    " NZ": 4059,
    " Na": 4060,
    " Nb": 4061,
    " Nd": 4062,
    " Ne": 4063,
    " Ng": 4064,
    " Ni": 4065,
    " No": 4066,
    " Nr": 4067,
    " Nu": 4068,
    " Ny": 4069,
    " OA": 4070,
    " OB": 4071,
    " OC": 4072,
    " OD": 4073,
    " OF": 4074,
    " OH": 4075,
    " OK": 4076,
    " OL": 4077,
    " OM": 4078,
    " ON": 4079,
    " OP": 4080,
    " OR": 4081,
    " OS": 4082,
    " OT": 4083,
    " OU": 4084,
    " OV": 4085,
    " Ob": 4086,
    " Oc": 4087,
    " Od": 4088,
    " Of": 4089,
    " Og": 4090,
    " Oh": 4091,
    " Ok": 4092,
    " Ol": 4093,
    " Om": 4094,
    " On": 4095,
    " Op": 4096,
    " Or": 4097,
    " Os": 4098,
    " Ot": 4099,
    " Ou": 4100,
    " Ow": 4101,
    " Ox": 4102,
    " Oz": 4103,
    " PA": 4104,
    " PB": 4105,
    " PC": 4106,
    " PD": 4107,
    " PE": 4108,
    " PF": 4109,
    " PG": 4110,
    " PH": 4111,
    " PI": 4112,
    " PJ": 4113,
    " PK": 4114,
    " PL": 4115,
    " PM": 4116,
    " PN": 4117,
    " PO": 4118,
    " PP": 4119,
    " PR": 4120,
    " PS": 4121,
    " PT": 4122,
    " PU": 4123,
    " PV": 4124,
    " PW": 4125,
    " PY": 4126,
    " Pa": 4127,
    " Pb": 4128,
    " Pe": 4129,
    " Pf": 4130,
    " Ph": 4131,
    " Pi": 4132,
    " Pl": 4133,
    " Po": 4134,
    " Pr": 4135,
    " Ps": 4136,
    " Pt": 4137,
    " Pu": 4138,
    " Py": 4139,
    " QA": 4140,
    " QB": 4141,
    " QC": 4142,
    " QQ": 4143,
    " QR": 4144,
    " QS": 4145,
    " QT": 4146,
    " QU": 4147,
    " Qi": 4148,
    " Qt": 4149,
    " Qu": 4150,
    " RA": 4151,
    " RB": 4152,
    " RC": 4153,
    " RD": 4154,
    " RE": 4155,
    " RF": 4156,
    " RG": 4157,
    " RH": 4158,
    " RI": 4159,
    " RJ": 4160,
    " RL": 4161,
    " RM": 4162,
    " RN": 4163,
    " RO": 4164,
    " RP": 4165,
    " RR": 4166,
    " RS": 4167,
    " RT": 4168,
    " RU": 4169,
    " RV": 4170,
    " RW": 4171,
    " RX": 4172,
    " Ra": 4173,
    " Rd": 4174,
    " Re": 4175,
    " Rh": 4176,
    " Ri": 4177,
    " Ro": 4178,
    " Rs": 4179,
    " Ru": 4180,
    " Rx": 4181,
    " Ry": 4182,
    " SA": 4183,
    " SB": 4184,
    " SC": 4185,
    " SD": 4186,
    " SE": 4187,
    " SF": 4188,
    " SG": 4189,
    " SH": 4190,
    " SI": 4191,
    " SJ": 4192,
    " SK": 4193,
    " SL": 4194,
    " SM": 4195,
    " SN": 4196,
    " SO": 4197,
    " SP": 4198,
    " SQ": 4199,
    " SR": 4200,
    " SS": 4201,
    " ST": 4202,
    " SU": 4203,
    " SV": 4204,
    " SW": 4205,
    " SY": 4206,
    " SZ": 4207,
    " Sa": 4208,
    " Sc": 4209,
    " Se": 4210,
    " Sh": 4211,
    " Si": 4212,
    " Sk": 4213,
    " Sl": 4214,
    " Sm": 4215,
    " Sn": 4216,
    " So": 4217,
    " Sp": 4218,
    " Sr": 4219,
    " St": 4220,
    " Su": 4221,
    " Sv": 4222,
    " Sw": 4223,
    " Sy": 4224,
    " Sz": 4225,
    " TA": 4226,
    " TB": 4227,
    " TC": 4228,
    " TD": 4229,
    " TE": 4230,
    " TF": 4231,
    " TG": 4232,
    " TH": 4233,
    " TI": 4234,
    " TK": 4235,
    " TL": 4236,
    " TM": 4237,
    " TN": 4238,
    " TO": 4239,
    " TP": 4240,
    " TR": 4241,
    " TS": 4242,
    " TT": 4243,
    " TU": 4244,
    " TV": 4245,
    " TW": 4246,
    " TX": 4247,
    " TY": 4248,
    " Ta": 4249,
    " Tb": 4250,
    " Te": 4251,
    " Th": 4252,
    " Ti": 4253,
    " Tk": 4254,
    " To": 4255,
    " Tr": 4256,
    " Ts": 4257,
    " Tu": 4258,
    " Tw": 4259,
    " Tx": 4260,
    " Ty": 4261,
    " UA": 4262,
    " UC": 4263,
    " UD": 4264,
    " UE": 4265,
    " UI": 4266,
    " UK": 4267,
    " UL": 4268,
    " UM": 4269,
    " UN": 4270,
    " UP": 4271,
    " UR": 4272,
    " US": 4273,
    " UT": 4274,
    " UV": 4275,
    " UW": 4276,
    " UX": 4277,
    " Ub": 4278,
    " Ud": 4279,
    " Ug": 4280,
    " Uh": 4281,
    " Ui": 4282,
    " Uk": 4283,
    " Ul": 4284,
    " Um": 4285,
    " Un": 4286,
    " Up": 4287,
    " Ur": 4288,
    " Us": 4289,
    " Ut": 4290,
    " VA": 4291,
    " VB": 4292,
    " VC": 4293,
    " VE": 4294,
    " VG": 4295,
    " VI": 4296,
    " VK": 4297,
    " VL": 4298,
    " VM": 4299,
    " VO": 4300,
    " VP": 4301,
    " VR": 4302,
    " VS": 4303,
    " VT": 4304,
    " VW": 4305,
    " Va": 4306,
    " Ve": 4307,
    " Vi": 4308,
    " Vo": 4309,
    " Vs": 4310,
    " Vu": 4311,
    " Vy": 4312,
    " WA": 4313,
    " WB": 4314,
    " WC": 4315,
    " WD": 4316,
    " WE": 4317,
    " WF": 4318,
    " WG": 4319,
    " WH": 4320,
    " WI": 4321,
    " WL": 4322,
    " WM": 4323,
    " WO": 4324,
    " WP": 4325,
    " WR": 4326,
    " WS": 4327,
    " WT": 4328,
    " WW": 4329,
    " Wa": 4330,
    " We": 4331,
    " Wh": 4332,
    " Wi": 4333,
    " Wo": 4334,
    " Wr": 4335,
    " Wu": 4336,
    " Wy": 4337,
    " XI": 4338,
    " XL": 4339,
    " XP": 4340,
    " XS": 4341,
    " XV": 4342,
    " XX": 4343,
    " XY": 4344,
    " Xi": 4345,
    " Xu": 4346,
    " YA": 4347,
    " YE": 4348,
    " Ya": 4349,
    " Ye": 4350,
    " Yi": 4351,
    " Yo": 4352,
    " Yu": 4353,
    " ZZ": 4354,
    " Za": 4355,
    " Ze": 4356,
    " Zh": 4357,
    " Zi": 4358,
    " Zn": 4359,
    " Zo": 4360,
    " Zu": 4361,
    " Zw": 4362,
    " [\"": 4363,
    " [$": 4364,
    " ['": 4365,
    " [(": 4366,
    " [*": 4367,
    " [-": 4368,
    " [:": 4369,
    " [<": 4370,
    " [[": 4371,
    " [\\\\": 4372,
    " []": 4373,
    " [_": 4374,
    " [`": 4375,
    " [{": 4376,
    " \\\\\"": 4377,
    " \\\\$": 4378,
    " \\\\'": 4379,
    " \\\\(": 4380,
    " \\\\;": 4381,
    " \\\\<": 4382,
    " \\\\\\\\": 4383,
    " \\\\{": 4384,
    " \\\\|": 4385,
    " ],": 4386,
    " ];": 4387,
    " ]]": 4388,
    " ^{": 4389,
    " _(": 4390,
    " _)": 4391,
    " _,": 4392,
    " _.": 4393,
    " __": 4394,
    " _{": 4395,
    " `%": 4396,
    " `'": 4397,
    " `(": 4398,
    " `-": 4399,
    " `.": 4400,
    " `[": 4401,
    " `\\\\": 4402,
    " `_": 4403,
    " ``": 4404,
    " `{": 4405,
    " aa": 4406,
    " ab": 4407,
    " ac": 4408,
    " ad": 4409,
    " ae": 4410,
    " af": 4411,
    " ag": 4412,
    " ah": 4413,
    " ai": 4414,
    " aj": 4415,
    " ak": 4416,
    " al": 4417,
    " am": 4418,
    " an": 4419,
    " ao": 4420,
    " ap": 4421,
    " ar": 4422,
    " as": 4423,
    " at": 4424,
    " au": 4425,
    " av": 4426,
    " aw": 4427,
    " ax": 4428,
    " ay": 4429,
    " az": 4430,
    " ba": 4431,
    " bb": 4432,
    " bc": 4433,
    " bd": 4434,
    " be": 4435,
    " bf": 4436,
    " bg": 4437,
    " bh": 4438,
    " bi": 4439,
    " bl": 4440,
    " bm": 4441,
    " bn": 4442,
    " bo": 4443,
    " bp": 4444,
    " br": 4445,
    " bs": 4446,
    " bt": 4447,
    " bu": 4448,
    " bw": 4449,
    " by": 4450,
    " bz": 4451,
    " ca": 4452,
    " cb": 4453,
    " cc": 4454,
    " cd": 4455,
    " ce": 4456,
    " cf": 4457,
    " cg": 4458,
    " ch": 4459,
    " ci": 4460,
    " ck": 4461,
    " cl": 4462,
    " cm": 4463,
    " cn": 4464,
    " co": 4465,
    " cp": 4466,
    " cr": 4467,
    " cs": 4468,
    " ct": 4469,
    " cu": 4470,
    " cv": 4471,
    " cw": 4472,
    " cx": 4473,
    " cy": 4474,
    " cz": 4475,
    " dB": 4476,
    " da": 4477,
    " db": 4478,
    " dc": 4479,
    " dd": 4480,
    " de": 4481,
    " df": 4482,
    " dg": 4483,
    " dh": 4484,
    " di": 4485,
    " dj": 4486,
    " dk": 4487,
    " dl": 4488,
    " dm": 4489,
    " dn": 4490,
    " do": 4491,
    " dp": 4492,
    " dq": 4493,
    " dr": 4494,
    " ds": 4495,
    " dt": 4496,
    " du": 4497,
    " dv": 4498,
    " dw": 4499,
    " dx": 4500,
    " dy": 4501,
    " dz": 4502,
    " eV": 4503,
    " ea": 4504,
    " eb": 4505,
    " ec": 4506,
    " ed": 4507,
    " ee": 4508,
    " ef": 4509,
    " eg": 4510,
    " eh": 4511,
    " ei": 4512,
    " ej": 4513,
    " ek": 4514,
    " el": 4515,
    " em": 4516,
    " en": 4517,
    " ep": 4518,
    " eq": 4519,
    " er": 4520,
    " es": 4521,
    " et": 4522,
    " eu": 4523,
    " ev": 4524,
    " ew": 4525,
    " ex": 4526,
    " ey": 4527,
    " ez": 4528,
    " fa": 4529,
    " fb": 4530,
    " fc": 4531,
    " fd": 4532,
    " fe": 4533,
    " ff": 4534,
    " fi": 4535,
    " fj": 4536,
    " fl": 4537,
    " fm": 4538,
    " fn": 4539,
    " fo": 4540,
    " fp": 4541,
    " fr": 4542,
    " fs": 4543,
    " ft": 4544,
    " fu": 4545,
    " fx": 4546,
    " fy": 4547,
    " ga": 4548,
    " gb": 4549,
    " gc": 4550,
    " ge": 4551,
    " gg": 4552,
    " gh": 4553,
    " gi": 4554,
    " gj": 4555,
    " gl": 4556,
    " gm": 4557,
    " gn": 4558,
    " go": 4559,
    " gp": 4560,
    " gr": 4561,
    " gs": 4562,
    " gt": 4563,
    " gu": 4564,
    " gw": 4565,
    " gy": 4566,
    " ha": 4567,
    " hd": 4568,
    " he": 4569,
    " hf": 4570,
    " hi": 4571,
    " hl": 4572,
    " ho": 4573,
    " hp": 4574,
    " hr": 4575,
    " hs": 4576,
    " ht": 4577,
    " hu": 4578,
    " hv": 4579,
    " hw": 4580,
    " hy": 4581,
    " iT": 4582,
    " ia": 4583,
    " ib": 4584,
    " ic": 4585,
    " id": 4586,
    " ie": 4587,
    " if": 4588,
    " ig": 4589,
    " ih": 4590,
    " ii": 4591,
    " ij": 4592,
    " ik": 4593,
    " il": 4594,
    " im": 4595,
    " in": 4596,
    " io": 4597,
    " ip": 4598,
    " ir": 4599,
    " is": 4600,
    " it": 4601,
    " iv": 4602,
    " ix": 4603,
    " iy": 4604,
    " iz": 4605,
    " ja": 4606,
    " je": 4607,
    " ji": 4608,
    " jj": 4609,
    " jo": 4610,
    " js": 4611,
    " ju": 4612,
    " kB": 4613,
    " kW": 4614,
    " ka": 4615,
    " kb": 4616,
    " ke": 4617,
    " kg": 4618,
    " kh": 4619,
    " ki": 4620,
    " kj": 4621,
    " kk": 4622,
    " kl": 4623,
    " km": 4624,
    " kn": 4625,
    " ko": 4626,
    " kp": 4627,
    " kr": 4628,
    " ks": 4629,
    " kt": 4630,
    " ku": 4631,
    " kv": 4632,
    " kw": 4633,
    " ky": 4634,
    " la": 4635,
    " lb": 4636,
    " lc": 4637,
    " ld": 4638,
    " le": 4639,
    " lg": 4640,
    " li": 4641,
    " ll": 4642,
    " lm": 4643,
    " ln": 4644,
    " lo": 4645,
    " lp": 4646,
    " lr": 4647,
    " ls": 4648,
    " lt": 4649,
    " lu": 4650,
    " lv": 4651,
    " lw": 4652,
    " ly": 4653,
    " mL": 4654,
    " mM": 4655,
    " ma": 4656,
    " mb": 4657,
    " mc": 4658,
    " md": 4659,
    " me": 4660,
    " mf": 4661,
    " mg": 4662,
    " mi": 4663,
    " mk": 4664,
    " ml": 4665,
    " mm": 4666,
    " mn": 4667,
    " mo": 4668,
    " mp": 4669,
    " mr": 4670,
    " ms": 4671,
    " mt": 4672,
    " mu": 4673,
    " mv": 4674,
    " mw": 4675,
    " mx": 4676,
    " my": 4677,
    " na": 4678,
    " nb": 4679,
    " nc": 4680,
    " nd": 4681,
    " ne": 4682,
    " nf": 4683,
    " ng": 4684,
    " nh": 4685,
    " ni": 4686,
    " nj": 4687,
    " nk": 4688,
    " nl": 4689,
    " nm": 4690,
    " nn": 4691,
    " no": 4692,
    " np": 4693,
    " nr": 4694,
    " ns": 4695,
    " nt": 4696,
    " nu": 4697,
    " nv": 4698,
    " nw": 4699,
    " nx": 4700,
    " ny": 4701,
    " nz": 4702,
    " ob": 4703,
    " oc": 4704,
    " od": 4705,
    " of": 4706,
    " og": 4707,
    " oh": 4708,
    " ok": 4709,
    " ol": 4710,
    " om": 4711,
    " on": 4712,
    " oo": 4713,
    " op": 4714,
    " or": 4715,
    " os": 4716,
    " ot": 4717,
    " ou": 4718,
    " ov": 4719,
    " ow": 4720,
    " ox": 4721,
    " oy": 4722,
    " oz": 4723,
    " pH": 4724,
    " pa": 4725,
    " pb": 4726,
    " pc": 4727,
    " pd": 4728,
    " pe": 4729,
    " pf": 4730,
    " pg": 4731,
    " ph": 4732,
    " pi": 4733,
    " pk": 4734,
    " pl": 4735,
    " pm": 4736,
    " pn": 4737,
    " po": 4738,
    " pp": 4739,
    " pq": 4740,
    " pr": 4741,
    " ps": 4742,
    " pt": 4743,
    " pu": 4744,
    " pv": 4745,
    " pw": 4746,
    " px": 4747,
    " py": 4748,
    " qi": 4749,
    " qq": 4750,
    " qt": 4751,
    " qu": 4752,
    " ra": 4753,
    " rb": 4754,
    " rc": 4755,
    " rd": 4756,
    " re": 4757,
    " rf": 4758,
    " rg": 4759,
    " rh": 4760,
    " ri": 4761,
    " rm": 4762,
    " rn": 4763,
    " ro": 4764,
    " rp": 4765,
    " rr": 4766,
    " rs": 4767,
    " rt": 4768,
    " ru": 4769,
    " rv": 4770,
    " rw": 4771,
    " rx": 4772,
    " ry": 4773,
    " sa": 4774,
    " sb": 4775,
    " sc": 4776,
    " sd": 4777,
    " se": 4778,
    " sf": 4779,
    " sg": 4780,
    " sh": 4781,
    " si": 4782,
    " sj": 4783,
    " sk": 4784,
    " sl": 4785,
    " sm": 4786,
    " sn": 4787,
    " so": 4788,
    " sp": 4789,
    " sq": 4790,
    " sr": 4791,
    " ss": 4792,
    " st": 4793,
    " su": 4794,
    " sv": 4795,
    " sw": 4796,
    " sy": 4797,
    " sz": 4798,
    " ta": 4799,
    " tb": 4800,
    " tc": 4801,
    " td": 4802,
    " te": 4803,
    " tf": 4804,
    " th": 4805,
    " ti": 4806,
    " tk": 4807,
    " tl": 4808,
    " tm": 4809,
    " tn": 4810,
    " to": 4811,
    " tp": 4812,
    " tr": 4813,
    " ts": 4814,
    " tt": 4815,
    " tu": 4816,
    " tv": 4817,
    " tw": 4818,
    " tx": 4819,
    " ty": 4820,
    " tz": 4821,
    " ua": 4822,
    " ub": 4823,
    " uc": 4824,
    " ud": 4825,
    " ug": 4826,
    " uh": 4827,
    " ui": 4828,
    " uk": 4829,
    " ul": 4830,
    " um": 4831,
    " un": 4832,
    " up": 4833,
    " ur": 4834,
    " us": 4835,
    " ut": 4836,
    " uv": 4837,
    " uw": 4838,
    " uz": 4839,
    " va": 4840,
    " vb": 4841,
    " vc": 4842,
    " ve": 4843,
    " vi": 4844,
    " vl": 4845,
    " vm": 4846,
    " vn": 4847,
    " vo": 4848,
    " vp": 4849,
    " vr": 4850,
    " vs": 4851,
    " vt": 4852,
    " vu": 4853,
    " vy": 4854,
    " wa": 4855,
    " wb": 4856,
    " wc": 4857,
    " we": 4858,
    " wf": 4859,
    " wh": 4860,
    " wi": 4861,
    " wk": 4862,
    " wo": 4863,
    " wp": 4864,
    " wr": 4865,
    " ws": 4866,
    " wt": 4867,
    " ww": 4868,
    " wx": 4869,
    " wy": 4870,
    " xe": 4871,
    " xi": 4872,
    " xl": 4873,
    " xs": 4874,
    " xt": 4875,
    " xx": 4876,
    " xy": 4877,
    " ya": 4878,
    " ye": 4879,
    " yi": 4880,
    " yo": 4881,
    " yr": 4882,
    " ys": 4883,
    " yy": 4884,
    " za": 4885,
    " ze": 4886,
    " zh": 4887,
    " zi": 4888,
    " zo": 4889,
    " zu": 4890,
    " zw": 4891,
    " zz": 4892,
    " {\"": 4893,
    " {$": 4894,
    " {%": 4895,
    " {'": 4896,
    " {(": 4897,
    " {-": 4898,
    " {:": 4899,
    " {@": 4900,
    " {\\\\": 4901,
    " {{": 4902,
    " {}": 4903,
    " |=": 4904,
    " |\\\\": 4905,
    " ||": 4906,
    " })": 4907,
    " },": 4908,
    " };": 4909,
    " }\\\\": 4910,
    " }]": 4911,
    " }{": 4912,
    " }}": 4913,
    " ~/": 4914,
    " \\xa0": 4915,
    " ¡": 4916,
    " ¢": 4917,
    " £": 4918,
    " ¤": 4919,
    " ¥": 4920,
    " ¦": 4921,
    " §": 4922,
    " ©": 4923,
    " «": 4924,
    " ¬": 4925,
    " \\xad": 4926,
    " ®": 4927,
    " °": 4928,
    " ±": 4929,
    " µ": 4930,
    " ¶": 4931,
    " ·": 4932,
    " »": 4933,
    " ¼": 4934,
    " ½": 4935,
    " ¿": 4936,
    " À": 4937,
    " Á": 4938,
    " Â": 4939,
    " Ã": 4940,
    " Ä": 4941,
    " Å": 4942,
    " Ç": 4943,
    " È": 4944,
    " É": 4945,
    " Ê": 4946,
    " Í": 4947,
    " Î": 4948,
    " Ð": 4949,
    " Ñ": 4950,
    " Ò": 4951,
    " Ó": 4952,
    " Ô": 4953,
    " Ö": 4954,
    " ×": 4955,
    " Ø": 4956,
    " Ú": 4957,
    " Ü": 4958,
    " Þ": 4959,
    " ß": 4960,
    " à": 4961,
    " á": 4962,
    " â": 4963,
    " ã": 4964,
    " ä": 4965,
    " å": 4966,
    " æ": 4967,
    " ç": 4968,
    " è": 4969,
    " é": 4970,
    " ê": 4971,
    " ë": 4972,
    " ì": 4973,
    " í": 4974,
    " î": 4975,
    " ð": 4976,
    " ñ": 4977,
    " ó": 4978,
    " ô": 4979,
    " ö": 4980,
    " ÷": 4981,
    " ø": 4982,
    " ú": 4983,
    " ü": 4984,
    " þ": 4985,
    " Ā": 4986,
    " ā": 4987,
    " ĉ": 4988,
    " Č": 4989,
    " č": 4990,
    " Đ": 4991,
    " đ": 4992,
    " İ": 4993,
    " Ł": 4994,
    " ł": 4995,
    " ő": 4996,
    " œ": 4997,
    " ř": 4998,
    " Ś": 4999,
    " ś": 5000,
    " ŝ": 5001,
    " Ş": 5002,
    " ş": 5003,
    " Š": 5004,
    " š": 5005,
    " ū": 5006,
    " Ż": 5007,
    " ż": 5008,
    " Ž": 5009,
    " ž": 5010,
    " ǫ": 5011,
    " ́": 5012,
    " ̃": 5013,
    " ̄": 5014,
    " ̇": 5015,
    " ̈": 5016,
    " ̊": 5017,
    " ̧": 5018,
    " Α": 5019,
    " Γ": 5020,
    " Δ": 5021,
    " Ε": 5022,
    " Θ": 5023,
    " Κ": 5024,
    " Λ": 5025,
    " Μ": 5026,
    " Π": 5027,
    " Σ": 5028,
    " Τ": 5029,
    " Φ": 5030,
    " Ψ": 5031,
    " Ω": 5032,
    " έ": 5033,
    " α": 5034,
    " β": 5035,
    " γ": 5036,
    " δ": 5037,
    " ε": 5038,
    " ζ": 5039,
    " η": 5040,
    " θ": 5041,
    " ι": 5042,
    " κ": 5043,
    " λ": 5044,
    " μ": 5045,
    " ν": 5046,
    " ξ": 5047,
    " ο": 5048,
    " π": 5049,
    " ρ": 5050,
    " σ": 5051,
    " τ": 5052,
    " υ": 5053,
    " φ": 5054,
    " χ": 5055,
    " ψ": 5056,
    " ω": 5057,
    " ό": 5058,
    " Є": 5059,
    " І": 5060,
    " Ј": 5061,
    " А": 5062,
    " Б": 5063,
    " В": 5064,
    " Г": 5065,
    " Д": 5066,
    " Е": 5067,
    " Ж": 5068,
    " З": 5069,
    " И": 5070,
    " Й": 5071,
    " К": 5072,
    " Л": 5073,
    " М": 5074,
    " Н": 5075,
    " О": 5076,
    " П": 5077,
    " Р": 5078,
    " С": 5079,
    " Т": 5080,
    " У": 5081,
    " Ф": 5082,
    " Х": 5083,
    " Ц": 5084,
    " Ч": 5085,
    " Ш": 5086,
    " Щ": 5087,
    " Э": 5088,
    " Ю": 5089,
    " Я": 5090,
    " а": 5091,
    " б": 5092,
    " в": 5093,
    " г": 5094,
    " д": 5095,
    " е": 5096,
    " ж": 5097,
    " з": 5098,
    " и": 5099,
    " й": 5100,
    " к": 5101,
    " л": 5102,
    " м": 5103,
    " н": 5104,
    " о": 5105,
    " п": 5106,
    " р": 5107,
    " с": 5108,
    " т": 5109,
    " у": 5110,
    " ф": 5111,
    " х": 5112,
    " ц": 5113,
    " ч": 5114,
    " ш": 5115,
    " щ": 5116,
    " э": 5117,
    " ю": 5118,
    " я": 5119,
    " є": 5120,
    " і": 5121,
    " ї": 5122,
    " ј": 5123,
    " א": 5124,
    " ב": 5125,
    " ה": 5126,
    " ו": 5127,
    " י": 5128,
    " כ": 5129,
    " ל": 5130,
    " מ": 5131,
    " נ": 5132,
    " ע": 5133,
    " ש": 5134,
    " آ": 5135,
    " أ": 5136,
    " إ": 5137,
    " ا": 5138,
    " ب": 5139,
    " ت": 5140,
    " ج": 5141,
    " ح": 5142,
    " خ": 5143,
    " د": 5144,
    " ر": 5145,
    " س": 5146,
    " ش": 5147,
    " ص": 5148,
    " ع": 5149,
    " ف": 5150,
    " ق": 5151,
    " ك": 5152,
    " ل": 5153,
    " م": 5154,
    " ن": 5155,
    " ه": 5156,
    " و": 5157,
    " ي": 5158,
    " پ": 5159,
    " ک": 5160,
    " گ": 5161,
    " ی": 5162,
    "!!!": 5163,
    "!\")": 5164,
    "!\",": 5165,
    "!',": 5166,
    "!),": 5167,
    "!).": 5168,
    "!--": 5169,
    "\"\"\"": 5170,
    "\"\",": 5171,
    "\"))": 5172,
    "\"),": 5173,
    "\").": 5174,
    "\"):": 5175,
    "\");": 5176,
    "\")]": 5177,
    "\",\"": 5178,
    "\"--": 5179,
    "\"/>": 5180,
    "\":\"": 5181,
    "\":[": 5182,
    "\":{": 5183,
    "\"</": 5184,
    "\"=>": 5185,
    "\">&": 5186,
    "\">\\'": 5187,
    "\"><": 5188,
    "\"?>": 5189,
    "\"])": 5190,
    "\"],": 5191,
    "\"].": 5192,
    "\"]:": 5193,
    "\"];": 5194,
    "\"][": 5195,
    "\"]]": 5196,
    "\"]}": 5197,
    "\"})": 5198,
    "\"},": 5199,
    "\"}}": 5200,
    "###": 5201,
    "%),": 5202,
    "%).": 5203,
    "\\'\",": 5204,
    "'''": 5205,
    "')(": 5206,
    "'))": 5207,
    "'),": 5208,
    "').": 5209,
    "'):": 5210,
    "');": 5211,
    "')[": 5212,
    "')]": 5213,
    "','": 5214,
    "':'": 5215,
    "'</": 5216,
    "'=>": 5217,
    "'><": 5218,
    "'])": 5219,
    "']*": 5220,
    "'],": 5221,
    "'].": 5222,
    "']:": 5223,
    "'];": 5224,
    "']=": 5225,
    "'][": 5226,
    "']]": 5227,
    "']}": 5228,
    "'ll": 5229,
    "'re": 5230,
    "'ve": 5231,
    "'})": 5232,
    "'},": 5233,
    "(\"\"": 5234,
    "(\"#": 5235,
    "(\"%": 5236,
    "(\"+": 5237,
    "(\",": 5238,
    "(\"-": 5239,
    "(\".": 5240,
    "(\"/": 5241,
    "(\":": 5242,
    "(\"<": 5243,
    "(\"@": 5244,
    "(\"\\\\": 5245,
    "($_": 5246,
    "('#": 5247,
    "('$": 5248,
    "(',": 5249,
    "('-": 5250,
    "('.": 5251,
    "('/": 5252,
    "(':": 5253,
    "('<": 5254,
    "('@": 5255,
    "('[": 5256,
    "('\\\\": 5257,
    "('^": 5258,
    "('_": 5259,
    "(('": 5260,
    "(((": 5261,
    "(()": 5262,
    "()\"": 5263,
    "()(": 5264,
    "())": 5265,
    "(),": 5266,
    "().": 5267,
    "():": 5268,
    "();": 5269,
    "()[": 5270,
    "()]": 5271,
    "()`": 5272,
    "(){": 5273,
    "()}": 5274,
    "(*)": 5275,
    "(**": 5276,
    "(?:": 5277,
    "(@\"": 5278,
    "([\"": 5279,
    "(['": 5280,
    "([[": 5281,
    "([\\\\": 5282,
    "([^": 5283,
    "(__": 5284,
    "({'": 5285,
    ")\")": 5286,
    ")\",": 5287,
    ")\".": 5288,
    ")\">": 5289,
    ")',": 5290,
    ")(?": 5291,
    ")))": 5292,
    "))*": 5293,
    ")),": 5294,
    ")).": 5295,
    "))/": 5296,
    ")):": 5297,
    "));": 5298,
    "))?": 5299,
    "))\\\\": 5300,
    "))]": 5301,
    ")){": 5302,
    ")*(": 5303,
    ")**": 5304,
    ")+(": 5305,
    "),(": 5306,
    "),\\\\": 5307,
    ")--": 5308,
    ")->": 5309,
    ").\"": 5310,
    ")..": 5311,
    ").[": 5312,
    ").\\\\": 5313,
    ")/(": 5314,
    ");\\\\": 5315,
    ")</": 5316,
    ")=(": 5317,
    ")\\\\\\\\": 5318,
    ")])": 5319,
    ")],": 5320,
    ")].": 5321,
    ")];": 5322,
    ")})": 5323,
    ")},": 5324,
    ")}\\\\": 5325,
    ")}}": 5326,
    "*((": 5327,
    "**(": 5328,
    "***": 5329,
    "**/": 5330,
    "**:": 5331,
    "+\")": 5332,
    "+\"/": 5333,
    "+'.": 5334,
    "+'/": 5335,
    "+'_": 5336,
    "++)": 5337,
    "++,": 5338,
    "++;": 5339,
    "++]": 5340,
    ",''": 5341,
    ",**": 5342,
    "-\",": 5343,
    "--\"": 5344,
    "--+": 5345,
    "---": 5346,
    "--;": 5347,
    "-->": 5348,
    "->_": 5349,
    ".\"\"": 5350,
    ".\")": 5351,
    ".\",": 5352,
    ".\"[": 5353,
    ".$$": 5354,
    ".\\'\"": 5355,
    ".''": 5356,
    ".')": 5357,
    ".',": 5358,
    ".),": 5359,
    ".).": 5360,
    ".--": 5361,
    "...": 5362,
    "../": 5363,
    ".</": 5364,
    ".__": 5365,
    ".«": 5366,
    ".»": 5367,
    "/\")": 5368,
    "/\",": 5369,
    "/\">": 5370,
    "/')": 5371,
    "/',": 5372,
    "/*!": 5373,
    "/**": 5374,
    "/*.": 5375,
    "///": 5376,
    "/>.": 5377,
    "/__": 5378,
    ":\")": 5379,
    ":\",": 5380,
    ":')": 5381,
    ":',": 5382,
    ":**": 5383,
    ":--": 5384,
    "://": 5385,
    ":</": 5386,
    ":@\"": 5387,
    ":\\\\\\\\": 5388,
    ":])": 5389,
    ":],": 5390,
    ":].": 5391,
    ";\">": 5392,
    ";</": 5393,
    "=\"\"": 5394,
    "=\"#": 5395,
    "=\"$": 5396,
    "=\"\\'": 5397,
    "=\"+": 5398,
    "=\",": 5399,
    "=\"-": 5400,
    "=\".": 5401,
    "=\"/": 5402,
    "=\"<": 5403,
    "=\"@": 5404,
    "=\"\\\\": 5405,
    "=\"_": 5406,
    "=\"{": 5407,
    "=$(": 5408,
    "=${": 5409,
    "=\\'\"": 5410,
    "='#": 5411,
    "=''": 5412,
    "='+": 5413,
    "=',": 5414,
    "='/": 5415,
    "==\"": 5416,
    "=='": 5417,
    "===": 5418,
    "=[\"": 5419,
    "=['": 5420,
    "=[[": 5421,
    "=[]": 5422,
    "=\\\\\"": 5423,
    "=\\\\{": 5424,
    "={\"": 5425,
    "={'": 5426,
    "={\\\\": 5427,
    "={{": 5428,
    "={}": 5429,
    ">\")": 5430,
    ">\",": 5431,
    ">\";": 5432,
    ">')": 5433,
    ">',": 5434,
    ">';": 5435,
    ">()": 5436,
    ">).": 5437,
    ">::": 5438,
    "></": 5439,
    ">>>": 5440,
    ">{{": 5441,
    "?\",": 5442,
    "?',": 5443,
    "?),": 5444,
    "?).": 5445,
    "???": 5446,
    "AAA": 5447,
    "ABA": 5448,
    "ABC": 5449,
    "ABI": 5450,
    "ABS": 5451,
    "ACA": 5452,
    "ACC": 5453,
    "ACE": 5454,
    "ACH": 5455,
    "ACK": 5456,
    "ACP": 5457,
    "ACS": 5458,
    "ACT": 5459,
    "ADA": 5460,
    "ADC": 5461,
    "ADD": 5462,
    "ADE": 5463,
    "ADO": 5464,
    "ADS": 5465,
    "AES": 5466,
    "AFF": 5467,
    "AFP": 5468,
    "AGE": 5469,
    "AGG": 5470,
    "AIL": 5471,
    "AIN": 5472,
    "AIR": 5473,
    "ALA": 5474,
    "ALE": 5475,
    "ALK": 5476,
    "ALL": 5477,
    "ALS": 5478,
    "ALT": 5479,
    "AMA": 5480,
    "AMB": 5481,
    "AMD": 5482,
    "AME": 5483,
    "AMI": 5484,
    "AML": 5485,
    "AMP": 5486,
    "AMS": 5487,
    "ANA": 5488,
    "ANC": 5489,
    "AND": 5490,
    "ANE": 5491,
    "ANG": 5492,
    "ANI": 5493,
    "ANK": 5494,
    "ANN": 5495,
    "ANO": 5496,
    "ANS": 5497,
    "ANT": 5498,
    "ANY": 5499,
    "APE": 5500,
    "APH": 5501,
    "API": 5502,
    "APP": 5503,
    "APS": 5504,
    "ARA": 5505,
    "ARB": 5506,
    "ARC": 5507,
    "ARD": 5508,
    "ARE": 5509,
    "ARG": 5510,
    "ARI": 5511,
    "ARK": 5512,
    "ARM": 5513,
    "ARN": 5514,
    "ARP": 5515,
    "ARR": 5516,
    "ARS": 5517,
    "ART": 5518,
    "ARY": 5519,
    "ASA": 5520,
    "ASC": 5521,
    "ASE": 5522,
    "ASH": 5523,
    "ASK": 5524,
    "ASM": 5525,
    "ASP": 5526,
    "ASS": 5527,
    "AST": 5528,
    "ASY": 5529,
    "ATA": 5530,
    "ATE": 5531,
    "ATH": 5532,
    "ATI": 5533,
    "ATO": 5534,
    "ATS": 5535,
    "ATT": 5536,
    "AUD": 5537,
    "AUT": 5538,
    "AVA": 5539,
    "AVE": 5540,
    "AWS": 5541,
    "Abs": 5542,
    "Acc": 5543,
    "Ack": 5544,
    "Act": 5545,
    "Ada": 5546,
    "Add": 5547,
    "Adj": 5548,
    "Adv": 5549,
    "Aff": 5550,
    "Age": 5551,
    "Agg": 5552,
    "Air": 5553,
    "Akt": 5554,
    "Ald": 5555,
    "Ale": 5556,
    "Alg": 5557,
    "Ali": 5558,
    "All": 5559,
    "Alt": 5560,
    "Amb": 5561,
    "Amy": 5562,
    "And": 5563,
    "Ang": 5564,
    "Ann": 5565,
    "Ans": 5566,
    "Ant": 5567,
    "Any": 5568,
    "Api": 5569,
    "App": 5570,
    "Apr": 5571,
    "Aqu": 5572,
    "Arc": 5573,
    "Are": 5574,
    "Arg": 5575,
    "Ari": 5576,
    "Arm": 5577,
    "Arn": 5578,
    "Arr": 5579,
    "Art": 5580,
    "Asc": 5581,
    "Ash": 5582,
    "Ask": 5583,
    "Asp": 5584,
    "Ass": 5585,
    "Ast": 5586,
    "Ath": 5587,
    "Atl": 5588,
    "Att": 5589,
    "Aud": 5590,
    "Aug": 5591,
    "Aut": 5592,
    "Aux": 5593,
    "Avg": 5594,
    "Aws": 5595,
    "BAD": 5596,
    "BAL": 5597,
    "BAR": 5598,
    "BAS": 5599,
    "BAT": 5600,
    "BBC": 5601,
    "BER": 5602,
    "BIG": 5603,
    "BIN": 5604,
    "BIT": 5605,
    "BLE": 5606,
    "BMI": 5607,
    "BOT": 5608,
    "BOX": 5609,
    "BRE": 5610,
    "BSD": 5611,
    "BUF": 5612,
    "BUG": 5613,
    "BUR": 5614,
    "BUS": 5615,
    "Bab": 5616,
    "Bad": 5617,
    "Bag": 5618,
    "Bah": 5619,
    "Bal": 5620,
    "Ban": 5621,
    "Bar": 5622,
    "Bas": 5623,
    "Bat": 5624,
    "Bay": 5625,
    "Bbb": 5626,
    "Bed": 5627,
    "Bel": 5628,
    "Ben": 5629,
    "Ber": 5630,
    "Bes": 5631,
    "Bet": 5632,
    "Bib": 5633,
    "Bid": 5634,
    "Big": 5635,
    "Bin": 5636,
    "Bio": 5637,
    "Bir": 5638,
    "Bit": 5639,
    "Blo": 5640,
    "Bob": 5641,
    "Bol": 5642,
    "Bon": 5643,
    "Bor": 5644,
    "Bot": 5645,
    "Bow": 5646,
    "Box": 5647,
    "Boy": 5648,
    "Bra": 5649,
    "Bre": 5650,
    "Bro": 5651,
    "Btn": 5652,
    "Buf": 5653,
    "Bug": 5654,
    "Bul": 5655,
    "Bur": 5656,
    "Bus": 5657,
    "But": 5658,
    "Buy": 5659,
    "CAC": 5660,
    "CAD": 5661,
    "CAL": 5662,
    "CAM": 5663,
    "CAN": 5664,
    "CAP": 5665,
    "CAR": 5666,
    "CAS": 5667,
    "CAT": 5668,
    "CBC": 5669,
    "CBS": 5670,
    "CCA": 5671,
    "CCC": 5672,
    "CDC": 5673,
    "CDF": 5674,
    "CEL": 5675,
    "CEO": 5676,
    "CEP": 5677,
    "CER": 5678,
    "CES": 5679,
    "CFG": 5680,
    "CHA": 5681,
    "CHE": 5682,
    "CHO": 5683,
    "CHR": 5684,
    "CID": 5685,
    "CLA": 5686,
    "CLC": 5687,
    "CLE": 5688,
    "CLI": 5689,
    "CLK": 5690,
    "CLS": 5691,
    "CLU": 5692,
    "CMD": 5693,
    "CMS": 5694,
    "CNN": 5695,
    "CNT": 5696,
    "COD": 5697,
    "COL": 5698,
    "COM": 5699,
    "CON": 5700,
    "COR": 5701,
    "COS": 5702,
    "CPP": 5703,
    "CPU": 5704,
    "CRC": 5705,
    "CRE": 5706,
    "CSI": 5707,
    "CSS": 5708,
    "CSV": 5709,
    "CTC": 5710,
    "CTL": 5711,
    "CTT": 5712,
    "CTX": 5713,
    "CUR": 5714,
    "Cab": 5715,
    "Cad": 5716,
    "Cal": 5717,
    "Cam": 5718,
    "Can": 5719,
    "Cap": 5720,
    "Car": 5721,
    "Cas": 5722,
    "Cat": 5723,
    "Cel": 5724,
    "Cfg": 5725,
    "Cha": 5726,
    "Che": 5727,
    "Chi": 5728,
    "Cho": 5729,
    "Cir": 5730,
    "Cit": 5731,
    "Cla": 5732,
    "Cle": 5733,
    "Cli": 5734,
    "Clo": 5735,
    "Cmd": 5736,
    "Cnt": 5737,
    "CoV": 5738,
    "Cod": 5739,
    "Cog": 5740,
    "Col": 5741,
    "Com": 5742,
    "Con": 5743,
    "Cop": 5744,
    "Cor": 5745,
    "Cos": 5746,
    "Cov": 5747,
    "Cre": 5748,
    "Cro": 5749,
    "Css": 5750,
    "Csv": 5751,
    "Ctr": 5752,
    "Ctx": 5753,
    "Cur": 5754,
    "Cut": 5755,
    "DAC": 5756,
    "DAG": 5757,
    "DAO": 5758,
    "DAT": 5759,
    "DAY": 5760,
    "DBC": 5761,
    "DEC": 5762,
    "DED": 5763,
    "DEF": 5764,
    "DEL": 5765,
    "DEM": 5766,
    "DEN": 5767,
    "DEP": 5768,
    "DER": 5769,
    "DES": 5770,
    "DET": 5771,
    "DEV": 5772,
    "DEX": 5773,
    "DIC": 5774,
    "DIG": 5775,
    "DIM": 5776,
    "DIR": 5777,
    "DIS": 5778,
    "DIV": 5779,
    "DLL": 5780,
    "DNA": 5781,
    "DNS": 5782,
    "DOC": 5783,
    "DOM": 5784,
    "DON": 5785,
    "DOT": 5786,
    "DTD": 5787,
    "DVD": 5788,
    "Dal": 5789,
    "Dam": 5790,
    "Dan": 5791,
    "Dao": 5792,
    "Dar": 5793,
    "Das": 5794,
    "Dat": 5795,
    "Dav": 5796,
    "Day": 5797,
    "Deb": 5798,
    "Dec": 5799,
    "Def": 5800,
    "Deg": 5801,
    "Del": 5802,
    "Dem": 5803,
    "Den": 5804,
    "Dep": 5805,
    "Der": 5806,
    "Des": 5807,
    "Det": 5808,
    "Dev": 5809,
    "Dic": 5810,
    "Did": 5811,
    "Die": 5812,
    "Dig": 5813,
    "Dim": 5814,
    "Dir": 5815,
    "Dis": 5816,
    "Div": 5817,
    "Dlg": 5818,
    "Doc": 5819,
    "Dog": 5820,
    "Dom": 5821,
    "Don": 5822,
    "Dot": 5823,
    "Dou": 5824,
    "Dry": 5825,
    "Dub": 5826,
    "Due": 5827,
    "Dup": 5828,
    "Dur": 5829,
    "Dyn": 5830,
    "Dé": 5831,
    "EAR": 5832,
    "ECD": 5833,
    "ECK": 5834,
    "ECT": 5835,
    "EEE": 5836,
    "EEK": 5837,
    "EFF": 5838,
    "ELD": 5839,
    "ELE": 5840,
    "ELL": 5841,
    "ELS": 5842,
    "ELY": 5843,
    "EMA": 5844,
    "EMP": 5845,
    "ENA": 5846,
    "ENC": 5847,
    "END": 5848,
    "ENE": 5849,
    "ENG": 5850,
    "ENO": 5851,
    "ENS": 5852,
    "ENT": 5853,
    "ENV": 5854,
    "EOF": 5855,
    "EPS": 5856,
    "ERA": 5857,
    "ERC": 5858,
    "ERE": 5859,
    "ERN": 5860,
    "ERO": 5861,
    "ERR": 5862,
    "ERS": 5863,
    "ERT": 5864,
    "ERV": 5865,
    "ERY": 5866,
    "ESA": 5867,
    "ESC": 5868,
    "ESH": 5869,
    "ESP": 5870,
    "ESS": 5871,
    "EST": 5872,
    "ETA": 5873,
    "ETH": 5874,
    "ETS": 5875,
    "EUR": 5876,
    "EXP": 5877,
    "EXT": 5878,
    "Ear": 5879,
    "Eff": 5880,
    "Ele": 5881,
    "Ell": 5882,
    "Emb": 5883,
    "Emp": 5884,
    "Enc": 5885,
    "End": 5886,
    "Eng": 5887,
    "Enh": 5888,
    "Ent": 5889,
    "Env": 5890,
    "Equ": 5891,
    "Err": 5892,
    "Esc": 5893,
    "Esp": 5894,
    "Ess": 5895,
    "Est": 5896,
    "Eth": 5897,
    "Exc": 5898,
    "Exp": 5899,
    "Ext": 5900,
    "Eye": 5901,
    "FER": 5902,
    "FET": 5903,
    "FFF": 5904,
    "FFT": 5905,
    "FIG": 5906,
    "FIL": 5907,
    "FIN": 5908,
    "FIR": 5909,
    "FIT": 5910,
    "FIX": 5911,
    "FLO": 5912,
    "FOR": 5913,
    "FUN": 5914,
    "Fab": 5915,
    "Fac": 5916,
    "Fal": 5917,
    "Fan": 5918,
    "Far": 5919,
    "Fat": 5920,
    "Feb": 5921,
    "Fed": 5922,
    "Fel": 5923,
    "Fer": 5924,
    "Few": 5925,
    "Fig": 5926,
    "Fil": 5927,
    "Fin": 5928,
    "Fit": 5929,
    "Fix": 5930,
    "Flo": 5931,
    "Flu": 5932,
    "Fly": 5933,
    "Fmt": 5934,
    "Foo": 5935,
    "For": 5936,
    "Fox": 5937,
    "Fra": 5938,
    "Fre": 5939,
    "Fri": 5940,
    "Fun": 5941,
    "GAL": 5942,
    "GAN": 5943,
    "GAT": 5944,
    "GBT": 5945,
    "GCC": 5946,
    "GEN": 5947,
    "GER": 5948,
    "GES": 5949,
    "GET": 5950,
    "GHz": 5951,
    "GIN": 5952,
    "GIS": 5953,
    "GIT": 5954,
    "GLE": 5955,
    "GMT": 5956,
    "GNU": 5957,
    "GPL": 5958,
    "GPS": 5959,
    "GPU": 5960,
    "GRA": 5961,
    "GRE": 5962,
    "GRO": 5963,
    "GRP": 5964,
    "GUI": 5965,
    "Gab": 5966,
    "Gal": 5967,
    "Gap": 5968,
    "Gar": 5969,
    "Gas": 5970,
    "GeV": 5971,
    "Gem": 5972,
    "Gen": 5973,
    "Geo": 5974,
    "Ger": 5975,
    "Get": 5976,
    "Gib": 5977,
    "Gil": 5978,
    "Git": 5979,
    "God": 5980,
    "Got": 5981,
    "Gra": 5982,
    "Gre": 5983,
    "Gro": 5984,
    "Gui": 5985,
    "Gun": 5986,
    "Guy": 5987,
    "HAL": 5988,
    "HAS": 5989,
    "HEL": 5990,
    "HER": 5991,
    "HIV": 5992,
    "HOW": 5993,
    "Had": 5994,
    "Hal": 5995,
    "Ham": 5996,
    "Han": 5997,
    "Har": 5998,
    "Has": 5999,
    "Haw": 6000,
    "Hay": 6001,
    "Haz": 6002,
    "Hel": 6003,
    "Hen": 6004,
    "Her": 6005,
    "Hex": 6006,
    "Hey": 6007,
    "Hig": 6008,
    "Hip": 6009,
    "His": 6010,
    "Hit": 6011,
    "Hol": 6012,
    "Hom": 6013,
    "Hon": 6014,
    "Hop": 6015,
    "Hor": 6016,
    "Hot": 6017,
    "How": 6018,
    "Hub": 6019,
    "Hum": 6020,
    "IAL": 6021,
    "IAN": 6022,
    "IAS": 6023,
    "IBM": 6024,
    "ICA": 6025,
    "ICC": 6026,
    "ICE": 6027,
    "ICH": 6028,
    "ICI": 6029,
    "ICK": 6030,
    "ICO": 6031,
    "ICS": 6032,
    "ICT": 6033,
    "IDA": 6034,
    "IDD": 6035,
    "IDE": 6036,
    "IDI": 6037,
    "IDS": 6038,
    "IDs": 6039,
    "IED": 6040,
    "IER": 6041,
    "IES": 6042,
    "IEW": 6043,
    "IFE": 6044,
    "IFF": 6045,
    "IFI": 6046,
    "IFT": 6047,
    "IFY": 6048,
    "IGH": 6049,
    "IGN": 6050,
    "III": 6051,
    "ILD": 6052,
    "ILE": 6053,
    "ILL": 6054,
    "ILS": 6055,
    "ILY": 6056,
    "IMA": 6057,
    "IME": 6058,
    "IMG": 6059,
    "IMO": 6060,
    "IMP": 6061,
    "IMS": 6062,
    "INA": 6063,
    "INC": 6064,
    "IND": 6065,
    "INE": 6066,
    "INF": 6067,
    "ING": 6068,
    "INI": 6069,
    "INK": 6070,
    "INO": 6071,
    "INS": 6072,
    "INT": 6073,
    "ION": 6074,
    "IOR": 6075,
    "IOS": 6076,
    "IPA": 6077,
    "IPP": 6078,
    "IPS": 6079,
    "IPT": 6080,
    "IPV": 6081,
    "IPv": 6082,
    "IRA": 6083,
    "IRC": 6084,
    "IRD": 6085,
    "IRE": 6086,
    "IRS": 6087,
    "IRT": 6088,
    "ISA": 6089,
    "ISC": 6090,
    "ISE": 6091,
    "ISH": 6092,
    "ISM": 6093,
    "ISO": 6094,
    "ISP": 6095,
    "ISS": 6096,
    "IST": 6097,
    "ITA": 6098,
    "ITE": 6099,
    "ITH": 6100,
    "ITS": 6101,
    "ITT": 6102,
    "ITY": 6103,
    "IUM": 6104,
    "IVE": 6105,
    "IZE": 6106,
    "Ice": 6107,
    "Ich": 6108,
    "Ide": 6109,
    "Ids": 6110,
    "Idx": 6111,
    "Ign": 6112,
    "Ill": 6113,
    "Img": 6114,
    "Imm": 6115,
    "Imp": 6116,
    "Inc": 6117,
    "Ind": 6118,
    "Inf": 6119,
    "Ing": 6120,
    "Ini": 6121,
    "Ins": 6122,
    "Int": 6123,
    "Inv": 6124,
    "Ion": 6125,
    "Isa": 6126,
    "Isn": 6127,
    "Iso": 6128,
    "Iss": 6129,
    "Its": 6130,
    "JOB": 6131,
    "JPG": 6132,
    "Jac": 6133,
    "Jam": 6134,
    "Jan": 6135,
    "Jar": 6136,
    "Jay": 6137,
    "Jen": 6138,
    "Jer": 6139,
    "Jet": 6140,
    "Jim": 6141,
    "Job": 6142,
    "Joe": 6143,
    "Joh": 6144,
    "Jon": 6145,
    "Jos": 6146,
    "Joy": 6147,
    "Jud": 6148,
    "Jul": 6149,
    "Jun": 6150,
    "KEN": 6151,
    "KER": 6152,
    "KEY": 6153,
    "Kal": 6154,
    "Kam": 6155,
    "Kar": 6156,
    "Kat": 6157,
    "Kay": 6158,
    "Ken": 6159,
    "Ker": 6160,
    "Key": 6161,
    "Kim": 6162,
    "Kin": 6163,
    "Kir": 6164,
    "Kit": 6165,
    "Kon": 6166,
    "LAB": 6167,
    "LAN": 6168,
    "LAR": 6169,
    "LAS": 6170,
    "LAT": 6171,
    "LAY": 6172,
    "LED": 6173,
    "LEN": 6174,
    "LER": 6175,
    "LES": 6176,
    "LET": 6177,
    "LEV": 6178,
    "LEX": 6179,
    "LEY": 6180,
    "LIB": 6181,
    "LIN": 6182,
    "LOB": 6183,
    "LOC": 6184,
    "LOG": 6185,
    "LOS": 6186,
    "LOW": 6187,
    "Lab": 6188,
    "Lag": 6189,
    "Lam": 6190,
    "Lap": 6191,
    "Lar": 6192,
    "Las": 6193,
    "Lat": 6194,
    "Law": 6195,
    "Lay": 6196,
    "Lbl": 6197,
    "Lee": 6198,
    "Leg": 6199,
    "Len": 6200,
    "Les": 6201,
    "Let": 6202,
    "Lev": 6203,
    "Lew": 6204,
    "Lex": 6205,
    "Lib": 6206,
    "Lic": 6207,
    "Lie": 6208,
    "Lif": 6209,
    "Lik": 6210,
    "Lim": 6211,
    "Lin": 6212,
    "Lip": 6213,
    "Lit": 6214,
    "Lng": 6215,
    "Loc": 6216,
    "Log": 6217,
    "Lon": 6218,
    "Los": 6219,
    "Lot": 6220,
    "Lou": 6221,
    "Low": 6222,
    "Lua": 6223,
    "Luc": 6224,
    "Lux": 6225,
    "MAC": 6226,
    "MAG": 6227,
    "MAL": 6228,
    "MAN": 6229,
    "MAP": 6230,
    "MAR": 6231,
    "MAS": 6232,
    "MAT": 6233,
    "MAX": 6234,
    "MED": 6235,
    "MEM": 6236,
    "MEN": 6237,
    "MER": 6238,
    "MES": 6239,
    "MET": 6240,
    "MHz": 6241,
    "MIC": 6242,
    "MIN": 6243,
    "MIS": 6244,
    "MIT": 6245,
    "MIX": 6246,
    "MLE": 6247,
    "MLP": 6248,
    "MOD": 6249,
    "MON": 6250,
    "MOS": 6251,
    "MOV": 6252,
    "MPI": 6253,
    "MPL": 6254,
    "MRI": 6255,
    "MSC": 6256,
    "MSE": 6257,
    "MSG": 6258,
    "Mac": 6259,
    "Mad": 6260,
    "Mag": 6261,
    "Mah": 6262,
    "Mal": 6263,
    "Man": 6264,
    "Map": 6265,
    "Mar": 6266,
    "Mas": 6267,
    "Mat": 6268,
    "Max": 6269,
    "May": 6270,
    "McC": 6271,
    "Med": 6272,
    "Meg": 6273,
    "Mel": 6274,
    "Mem": 6275,
    "Men": 6276,
    "Mer": 6277,
    "Mes": 6278,
    "Met": 6279,
    "Mex": 6280,
    "Mgr": 6281,
    "Mic": 6282,
    "Mid": 6283,
    "Mil": 6284,
    "Min": 6285,
    "Mir": 6286,
    "Mis": 6287,
    "Mit": 6288,
    "Mix": 6289,
    "Mob": 6290,
    "Mod": 6291,
    "Moh": 6292,
    "Mol": 6293,
    "Mom": 6294,
    "Mon": 6295,
    "Mor": 6296,
    "Mot": 6297,
    "Mov": 6298,
    "Mrs": 6299,
    "Msg": 6300,
    "Mul": 6301,
    "Mur": 6302,
    "Mus": 6303,
    "Mut": 6304,
    "Mvc": 6305,
    "NAL": 6306,
    "NAM": 6307,
    "NAS": 6308,
    "NAT": 6309,
    "NBC": 6310,
    "NEL": 6311,
    "NER": 6312,
    "NES": 6313,
    "NET": 6314,
    "NEW": 6315,
    "NON": 6316,
    "NOR": 6317,
    "NOT": 6318,
    "NOW": 6319,
    "NPC": 6320,
    "NUM": 6321,
    "NaN": 6322,
    "Nam": 6323,
    "Nan": 6324,
    "Nat": 6325,
    "Nav": 6326,
    "Neg": 6327,
    "Net": 6328,
    "New": 6329,
    "Nic": 6330,
    "Nik": 6331,
    "Nil": 6332,
    "Nit": 6333,
    "Nom": 6334,
    "Non": 6335,
    "Nor": 6336,
    "Nos": 6337,
    "Not": 6338,
    "Nov": 6339,
    "Now": 6340,
    "Num": 6341,
    "OBJ": 6342,
    "OCI": 6343,
    "OCK": 6344,
    "OCT": 6345,
    "ODE": 6346,
    "ODO": 6347,
    "ODY": 6348,
    "OFF": 6349,
    "OID": 6350,
    "OLD": 6351,
    "OME": 6352,
    "ONA": 6353,
    "OND": 6354,
    "ONE": 6355,
    "ONG": 6356,
    "ONS": 6357,
    "ONT": 6358,
    "OPS": 6359,
    "OPT": 6360,
    "ORA": 6361,
    "ORD": 6362,
    "ORE": 6363,
    "ORG": 6364,
    "ORK": 6365,
    "ORM": 6366,
    "ORN": 6367,
    "ORS": 6368,
    "ORT": 6369,
    "ORY": 6370,
    "OSE": 6371,
    "OSS": 6372,
    "OST": 6373,
    "OTA": 6374,
    "OTE": 6375,
    "OTH": 6376,
    "OTO": 6377,
    "OTP": 6378,
    "OTS": 6379,
    "OTT": 6380,
    "OUR": 6381,
    "OUS": 6382,
    "OUT": 6383,
    "OVA": 6384,
    "OVE": 6385,
    "OWN": 6386,
    "Obj": 6387,
    "Obs": 6388,
    "Occ": 6389,
    "Oct": 6390,
    "Off": 6391,
    "Old": 6392,
    "One": 6393,
    "Ont": 6394,
    "Opp": 6395,
    "Ops": 6396,
    "Opt": 6397,
    "Ord": 6398,
    "Org": 6399,
    "Ori": 6400,
    "Our": 6401,
    "Out": 6402,
    "Own": 6403,
    "PAD": 6404,
    "PAN": 6405,
    "PAR": 6406,
    "PAS": 6407,
    "PAT": 6408,
    "PBS": 6409,
    "PCA": 6410,
    "PCI": 6411,
    "PCM": 6412,
    "PCR": 6413,
    "PDF": 6414,
    "PED": 6415,
    "PEG": 6416,
    "PER": 6417,
    "PET": 6418,
    "PHA": 6419,
    "PHP": 6420,
    "PIC": 6421,
    "PID": 6422,
    "PIN": 6423,
    "PIO": 6424,
    "PIP": 6425,
    "PLA": 6426,
    "PLC": 6427,
    "PLE": 6428,
    "PNG": 6429,
    "POL": 6430,
    "POP": 6431,
    "POR": 6432,
    "POS": 6433,
    "PRE": 6434,
    "PRI": 6435,
    "PRO": 6436,
    "PTR": 6437,
    "PUT": 6438,
    "PWM": 6439,
    "Pac": 6440,
    "Pad": 6441,
    "Pag": 6442,
    "Pak": 6443,
    "Pal": 6444,
    "Pan": 6445,
    "Pap": 6446,
    "Par": 6447,
    "Pas": 6448,
    "Pat": 6449,
    "Pay": 6450,
    "Pdf": 6451,
    "Ped": 6452,
    "Pen": 6453,
    "Per": 6454,
    "Pet": 6455,
    "Phi": 6456,
    "Pic": 6457,
    "Pie": 6458,
    "Pin": 6459,
    "Pix": 6460,
    "Pod": 6461,
    "Pol": 6462,
    "Pop": 6463,
    "Por": 6464,
    "Pos": 6465,
    "Pot": 6466,
    "Pow": 6467,
    "Pre": 6468,
    "Pri": 6469,
    "Pro": 6470,
    "Psi": 6471,
    "Ptr": 6472,
    "Pub": 6473,
    "Pur": 6474,
    "Put": 6475,
    "QUE": 6476,
    "Qty": 6477,
    "Que": 6478,
    "Qui": 6479,
    "RAD": 6480,
    "RAL": 6481,
    "RAM": 6482,
    "RAN": 6483,
    "RAW": 6484,
    "RAY": 6485,
    "REC": 6486,
    "RED": 6487,
    "REE": 6488,
    "REF": 6489,
    "REG": 6490,
    "REL": 6491,
    "REM": 6492,
    "REN": 6493,
    "REP": 6494,
    "REQ": 6495,
    "RES": 6496,
    "RET": 6497,
    "RFC": 6498,
    "RGB": 6499,
    "RIC": 6500,
    "RIX": 6501,
    "RMS": 6502,
    "RNA": 6503,
    "RNN": 6504,
    "ROC": 6505,
    "ROI": 6506,
    "ROL": 6507,
    "ROM": 6508,
    "RON": 6509,
    "ROP": 6510,
    "ROS": 6511,
    "ROT": 6512,
    "ROW": 6513,
    "RPC": 6514,
    "RSA": 6515,
    "RSS": 6516,
    "RTC": 6517,
    "RUN": 6518,
    "Rab": 6519,
    "Rad": 6520,
    "Ram": 6521,
    "Rat": 6522,
    "Raw": 6523,
    "Ray": 6524,
    "Rec": 6525,
    "Red": 6526,
    "Ref": 6527,
    "Reg": 6528,
    "Rel": 6529,
    "Rem": 6530,
    "Ren": 6531,
    "Rep": 6532,
    "Req": 6533,
    "Res": 6534,
    "Ret": 6535,
    "Rev": 6536,
    "Rew": 6537,
    "Ric": 6538,
    "Rob": 6539,
    "Rod": 6540,
    "Rol": 6541,
    "Rom": 6542,
    "Ron": 6543,
    "Ros": 6544,
    "Rot": 6545,
    "Row": 6546,
    "Roy": 6547,
    "Rub": 6548,
    "Run": 6549,
    "Ré": 6550,
    "SAM": 6551,
    "SAN": 6552,
    "SAT": 6553,
    "SCH": 6554,
    "SCI": 6555,
    "SCO": 6556,
    "SCR": 6557,
    "SDK": 6558,
    "SDL": 6559,
    "SEC": 6560,
    "SED": 6561,
    "SEE": 6562,
    "SEG": 6563,
    "SEL": 6564,
    "SEM": 6565,
    "SEP": 6566,
    "SEQ": 6567,
    "SER": 6568,
    "SET": 6569,
    "SHA": 6570,
    "SID": 6571,
    "SIG": 6572,
    "SIM": 6573,
    "SMS": 6574,
    "SNP": 6575,
    "SOC": 6576,
    "SOL": 6577,
    "SON": 6578,
    "SPE": 6579,
    "SPI": 6580,
    "SQL": 6581,
    "SRC": 6582,
    "SSH": 6583,
    "SSL": 6584,
    "STA": 6585,
    "STD": 6586,
    "STE": 6587,
    "STM": 6588,
    "STR": 6589,
    "STS": 6590,
    "SUB": 6591,
    "SUM": 6592,
    "SUP": 6593,
    "SUR": 6594,
    "SVG": 6595,
    "SYS": 6596,
    "Sab": 6597,
    "Sac": 6598,
    "Sad": 6599,
    "Saf": 6600,
    "Sal": 6601,
    "Sam": 6602,
    "San": 6603,
    "Sar": 6604,
    "Sat": 6605,
    "Sav": 6606,
    "Say": 6607,
    "Sch": 6608,
    "Sci": 6609,
    "Sdk": 6610,
    "Sea": 6611,
    "Sec": 6612,
    "See": 6613,
    "Seg": 6614,
    "Sel": 6615,
    "Sem": 6616,
    "Sen": 6617,
    "Sep": 6618,
    "Seq": 6619,
    "Ser": 6620,
    "Set": 6621,
    "Sex": 6622,
    "Sha": 6623,
    "She": 6624,
    "Sid": 6625,
    "Sig": 6626,
    "Sil": 6627,
    "Sim": 6628,
    "Sin": 6629,
    "Sir": 6630,
    "Sit": 6631,
    "Six": 6632,
    "Sky": 6633,
    "Soc": 6634,
    "Sol": 6635,
    "Son": 6636,
    "Sou": 6637,
    "Spe": 6638,
    "Spl": 6639,
    "Spr": 6640,
    "Spy": 6641,
    "Sql": 6642,
    "Squ": 6643,
    "Src": 6644,
    "Sta": 6645,
    "Std": 6646,
    "Ste": 6647,
    "Sto": 6648,
    "Str": 6649,
    "Sty": 6650,
    "Sub": 6651,
    "Suc": 6652,
    "Sud": 6653,
    "Sum": 6654,
    "Sun": 6655,
    "Sup": 6656,
    "Sur": 6657,
    "Sus": 6658,
    "Sym": 6659,
    "Syn": 6660,
    "Sys": 6661,
    "TAB": 6662,
    "TAG": 6663,
    "TCP": 6664,
    "TED": 6665,
    "TEM": 6666,
    "TER": 6667,
    "TES": 6668,
    "TEX": 6669,
    "THE": 6670,
    "TIM": 6671,
    "TLS": 6672,
    "TMP": 6673,
    "TON": 6674,
    "TOP": 6675,
    "TOR": 6676,
    "TRA": 6677,
    "TRY": 6678,
    "Tab": 6679,
    "Tag": 6680,
    "Tai": 6681,
    "Tak": 6682,
    "Tal": 6683,
    "Tam": 6684,
    "Tan": 6685,
    "Tap": 6686,
    "Tar": 6687,
    "Tax": 6688,
    "TeV": 6689,
    "TeX": 6690,
    "Ted": 6691,
    "Tek": 6692,
    "Tel": 6693,
    "Tem": 6694,
    "Ten": 6695,
    "Ter": 6696,
    "Tes": 6697,
    "Tex": 6698,
    "The": 6699,
    "Thu": 6700,
    "Tim": 6701,
    "Tip": 6702,
    "Tit": 6703,
    "Tmp": 6704,
    "Tok": 6705,
    "Tom": 6706,
    "Ton": 6707,
    "Too": 6708,
    "Top": 6709,
    "Tor": 6710,
    "Tot": 6711,
    "Toy": 6712,
    "Tra": 6713,
    "Tre": 6714,
    "Tri": 6715,
    "Tro": 6716,
    "Try": 6717,
    "Tue": 6718,
    "Tur": 6719,
    "Two": 6720,
    "Txt": 6721,
    "Typ": 6722,
    "UAL": 6723,
    "UCK": 6724,
    "UCT": 6725,
    "UDP": 6726,
    "UES": 6727,
    "UFF": 6728,
    "UGH": 6729,
    "UID": 6730,
    "UIT": 6731,
    "ULD": 6732,
    "ULE": 6733,
    "ULL": 6734,
    "ULT": 6735,
    "UME": 6736,
    "UMN": 6737,
    "UMP": 6738,
    "UNC": 6739,
    "UND": 6740,
    "UNE": 6741,
    "UNK": 6742,
    "UNT": 6743,
    "URA": 6744,
    "URE": 6745,
    "URI": 6746,
    "URL": 6747,
    "URN": 6748,
    "URS": 6749,
    "USA": 6750,
    "USB": 6751,
    "USD": 6752,
    "USE": 6753,
    "USH": 6754,
    "USS": 6755,
    "UST": 6756,
    "UTC": 6757,
    "UTE": 6758,
    "UTF": 6759,
    "UTH": 6760,
    "Uid": 6761,
    "Ult": 6762,
    "Und": 6763,
    "Uni": 6764,
    "Uns": 6765,
    "Uri": 6766,
    "Url": 6767,
    "Use": 6768,
    "Usu": 6769,
    "VAL": 6770,
    "VAR": 6771,
    "VED": 6772,
    "VEL": 6773,
    "VEN": 6774,
    "VER": 6775,
    "VES": 6776,
    "VIC": 6777,
    "VID": 6778,
    "VIE": 6779,
    "VII": 6780,
    "VIS": 6781,
    "VOL": 6782,
    "VPN": 6783,
    "Vac": 6784,
    "Val": 6785,
    "Van": 6786,
    "Var": 6787,
    "Vec": 6788,
    "Vel": 6789,
    "Ven": 6790,
    "Ver": 6791,
    "Via": 6792,
    "Vin": 6793,
    "Vir": 6794,
    "Vis": 6795,
    "Vol": 6796,
    "WAR": 6797,
    "WAY": 6798,
    "WEB": 6799,
    "WER": 6800,
    "WHO": 6801,
    "WID": 6802,
    "WIN": 6803,
    "WOR": 6804,
    "Wal": 6805,
    "War": 6806,
    "Was": 6807,
    "Wat": 6808,
    "Way": 6809,
    "Web": 6810,
    "Wed": 6811,
    "Wel": 6812,
    "Who": 6813,
    "Why": 6814,
    "Wik": 6815,
    "Wil": 6816,
    "Win": 6817,
    "Wol": 6818,
    "Won": 6819,
    "Wow": 6820,
    "XML": 6821,
    "XXX": 6822,
    "XYZ": 6823,
    "Xiv": 6824,
    "Xml": 6825,
    "YES": 6826,
    "YLE": 6827,
    "YOU": 6828,
    "YPE": 6829,
    "YYY": 6830,
    "Yes": 6831,
    "Yet": 6832,
    "You": 6833,
    "ZIP": 6834,
    "Zen": 6835,
    "Zip": 6836,
    "['_": 6837,
    "[:,": 6838,
    "[:-": 6839,
    "[:]": 6840,
    "[['": 6841,
    "[])": 6842,
    "[],": 6843,
    "[]{": 6844,
    "\\\\\"\"": 6845,
    "\\\\\",": 6846,
    "\\\\\":": 6847,
    "\\\\\">": 6848,
    "\\\\\\\\\\\\": 6849,
    "\\\\}$": 6850,
    "]\")": 6851,
    "]\",": 6852,
    "]',": 6853,
    "](#": 6854,
    "]))": 6855,
    "]),": 6856,
    "]).": 6857,
    "]):": 6858,
    "]);": 6859,
    "],[": 6860,
    "]->": 6861,
    "].[": 6862,
    "]=\"": 6863,
    "][\"": 6864,
    "]['": 6865,
    "]\\\\\\\\": 6866,
    "]])": 6867,
    "]],": 6868,
    "]];": 6869,
    "]},": 6870,
    "^{+": 6871,
    "^{-": 6872,
    "^{\\\\": 6873,
    "_(\"": 6874,
    "_('": 6875,
    "_->": 6876,
    "__(": 6877,
    "__)": 6878,
    "__,": 6879,
    "__.": 6880,
    "___": 6881,
    "_{\\\\": 6882,
    "`).": 6883,
    "```": 6884,
    "aaa": 6885,
    "aab": 6886,
    "aan": 6887,
    "aar": 6888,
    "aba": 6889,
    "abb": 6890,
    "abc": 6891,
    "abd": 6892,
    "abe": 6893,
    "abi": 6894,
    "abl": 6895,
    "abo": 6896,
    "abr": 6897,
    "abs": 6898,
    "aby": 6899,
    "aca": 6900,
    "acc": 6901,
    "ace": 6902,
    "ach": 6903,
    "aci": 6904,
    "ack": 6905,
    "acl": 6906,
    "aco": 6907,
    "acs": 6908,
    "act": 6909,
    "acy": 6910,
    "ada": 6911,
    "adb": 6912,
    "add": 6913,
    "ade": 6914,
    "adh": 6915,
    "adi": 6916,
    "adj": 6917,
    "adm": 6918,
    "ado": 6919,
    "adr": 6920,
    "ads": 6921,
    "adt": 6922,
    "adu": 6923,
    "adv": 6924,
    "ady": 6925,
    "aea": 6926,
    "ael": 6927,
    "aes": 6928,
    "afa": 6929,
    "afe": 6930,
    "aff": 6931,
    "afi": 6932,
    "aft": 6933,
    "aga": 6934,
    "age": 6935,
    "agg": 6936,
    "agh": 6937,
    "agi": 6938,
    "agn": 6939,
    "ago": 6940,
    "agr": 6941,
    "ags": 6942,
    "agt": 6943,
    "agu": 6944,
    "agy": 6945,
    "aha": 6946,
    "ahi": 6947,
    "ahl": 6948,
    "ahn": 6949,
    "aho": 6950,
    "ahr": 6951,
    "ahu": 6952,
    "aic": 6953,
    "aid": 6954,
    "ail": 6955,
    "aim": 6956,
    "ain": 6957,
    "air": 6958,
    "ais": 6959,
    "ait": 6960,
    "aja": 6961,
    "aje": 6962,
    "aji": 6963,
    "ajo": 6964,
    "aju": 6965,
    "aka": 6966,
    "ake": 6967,
    "akh": 6968,
    "aki": 6969,
    "akk": 6970,
    "ako": 6971,
    "aks": 6972,
    "akt": 6973,
    "aku": 6974,
    "aky": 6975,
    "ala": 6976,
    "alc": 6977,
    "ald": 6978,
    "ale": 6979,
    "alf": 6980,
    "alg": 6981,
    "ali": 6982,
    "alk": 6983,
    "all": 6984,
    "alm": 6985,
    "alo": 6986,
    "als": 6987,
    "alt": 6988,
    "alu": 6989,
    "aly": 6990,
    "ama": 6991,
    "amb": 6992,
    "amd": 6993,
    "ame": 6994,
    "ami": 6995,
    "aml": 6996,
    "amm": 6997,
    "amo": 6998,
    "amp": 6999,
    "ams": 7000,
    "amt": 7001,
    "amy": 7002,
    "ana": 7003,
    "anc": 7004,
    "and": 7005,
    "ane": 7006,
    "ang": 7007,
    "anh": 7008,
    "ani": 7009,
    "anj": 7010,
    "ank": 7011,
    "ann": 7012,
    "ano": 7013,
    "ans": 7014,
    "ant": 7015,
    "anu": 7016,
    "any": 7017,
    "anz": 7018,
    "aos": 7019,
    "apa": 7020,
    "ape": 7021,
    "aph": 7022,
    "api": 7023,
    "apk": 7024,
    "apo": 7025,
    "app": 7026,
    "apr": 7027,
    "aps": 7028,
    "apt": 7029,
    "apy": 7030,
    "aqu": 7031,
    "ara": 7032,
    "arb": 7033,
    "arc": 7034,
    "ard": 7035,
    "are": 7036,
    "arf": 7037,
    "arg": 7038,
    "ari": 7039,
    "ark": 7040,
    "arl": 7041,
    "arm": 7042,
    "arn": 7043,
    "aro": 7044,
    "arp": 7045,
    "arr": 7046,
    "ars": 7047,
    "art": 7048,
    "aru": 7049,
    "ary": 7050,
    "asa": 7051,
    "asc": 7052,
    "ase": 7053,
    "ash": 7054,
    "asi": 7055,
    "ask": 7056,
    "asm": 7057,
    "aso": 7058,
    "asp": 7059,
    "ass": 7060,
    "ast": 7061,
    "asu": 7062,
    "asy": 7063,
    "asz": 7064,
    "ata": 7065,
    "ate": 7066,
    "ath": 7067,
    "ati": 7068,
    "atl": 7069,
    "ato": 7070,
    "atr": 7071,
    "ats": 7072,
    "att": 7073,
    "atu": 7074,
    "aty": 7075,
    "atz": 7076,
    "auc": 7077,
    "aud": 7078,
    "auf": 7079,
    "aug": 7080,
    "aul": 7081,
    "aur": 7082,
    "aus": 7083,
    "aut": 7084,
    "aux": 7085,
    "ava": 7086,
    "ave": 7087,
    "avg": 7088,
    "avi": 7089,
    "avo": 7090,
    "avy": 7091,
    "awa": 7092,
    "awi": 7093,
    "awk": 7094,
    "awn": 7095,
    "aws": 7096,
    "awt": 7097,
    "axe": 7098,
    "axy": 7099,
    "aya": 7100,
    "aye": 7101,
    "ays": 7102,
    "aza": 7103,
    "aze": 7104,
    "azi": 7105,
    "azo": 7106,
    "azu": 7107,
    "azy": 7108,
    "azz": 7109,
    "añ": 7110,
    "ać": 7111,
    "ał": 7112,
    "aż": 7113,
    "bab": 7114,
    "bac": 7115,
    "bad": 7116,
    "bag": 7117,
    "bah": 7118,
    "bai": 7119,
    "bak": 7120,
    "bal": 7121,
    "bam": 7122,
    "ban": 7123,
    "bar": 7124,
    "bas": 7125,
    "bat": 7126,
    "bau": 7127,
    "bay": 7128,
    "baz": 7129,
    "bbc": 7130,
    "bbe": 7131,
    "bdd": 7132,
    "bec": 7133,
    "bed": 7134,
    "bee": 7135,
    "bef": 7136,
    "beg": 7137,
    "beh": 7138,
    "bei": 7139,
    "bek": 7140,
    "bel": 7141,
    "ben": 7142,
    "ber": 7143,
    "bes": 7144,
    "bet": 7145,
    "bey": 7146,
    "bfd": 7147,
    "bia": 7148,
    "bib": 7149,
    "bic": 7150,
    "bid": 7151,
    "bie": 7152,
    "big": 7153,
    "bil": 7154,
    "bin": 7155,
    "bio": 7156,
    "bir": 7157,
    "bis": 7158,
    "bit": 7159,
    "biz": 7160,
    "bla": 7161,
    "ble": 7162,
    "blk": 7163,
    "blo": 7164,
    "blr": 7165,
    "bly": 7166,
    "bmp": 7167,
    "bnb": 7168,
    "boa": 7169,
    "bob": 7170,
    "bol": 7171,
    "bon": 7172,
    "boo": 7173,
    "bor": 7174,
    "bos": 7175,
    "bot": 7176,
    "bow": 7177,
    "box": 7178,
    "boy": 7179,
    "bps": 7180,
    "bra": 7181,
    "bre": 7182,
    "bro": 7183,
    "bru": 7184,
    "bsd": 7185,
    "bst": 7186,
    "btn": 7187,
    "bud": 7188,
    "buf": 7189,
    "bug": 7190,
    "bul": 7191,
    "bum": 7192,
    "bur": 7193,
    "bus": 7194,
    "but": 7195,
    "buy": 7196,
    "bye": 7197,
    "bys": 7198,
    "bé": 7199,
    "bü": 7200,
    "bě": 7201,
    "cab": 7202,
    "cac": 7203,
    "cad": 7204,
    "cal": 7205,
    "cam": 7206,
    "can": 7207,
    "cap": 7208,
    "car": 7209,
    "cas": 7210,
    "cat": 7211,
    "cca": 7212,
    "ccc": 7213,
    "cci": 7214,
    "cco": 7215,
    "cdf": 7216,
    "cdn": 7217,
    "cea": 7218,
    "ced": 7219,
    "cel": 7220,
    "cem": 7221,
    "cen": 7222,
    "cep": 7223,
    "cer": 7224,
    "ces": 7225,
    "ceu": 7226,
    "cfg": 7227,
    "cgi": 7228,
    "cha": 7229,
    "che": 7230,
    "chi": 7231,
    "chk": 7232,
    "chl": 7233,
    "chn": 7234,
    "cho": 7235,
    "chr": 7236,
    "chs": 7237,
    "cht": 7238,
    "chu": 7239,
    "chy": 7240,
    "cia": 7241,
    "cid": 7242,
    "cie": 7243,
    "cig": 7244,
    "cii": 7245,
    "cil": 7246,
    "cin": 7247,
    "cio": 7248,
    "cip": 7249,
    "cir": 7250,
    "cis": 7251,
    "cit": 7252,
    "cke": 7253,
    "cki": 7254,
    "cko": 7255,
    "cks": 7256,
    "cla": 7257,
    "cle": 7258,
    "clf": 7259,
    "cli": 7260,
    "clk": 7261,
    "clo": 7262,
    "cls": 7263,
    "cmb": 7264,
    "cmd": 7265,
    "cmp": 7266,
    "cms": 7267,
    "cnt": 7268,
    "cod": 7269,
    "coe": 7270,
    "col": 7271,
    "com": 7272,
    "con": 7273,
    "cop": 7274,
    "cor": 7275,
    "cos": 7276,
    "cot": 7277,
    "cou": 7278,
    "cov": 7279,
    "cow": 7280,
    "cox": 7281,
    "cpp": 7282,
    "cpu": 7283,
    "cpy": 7284,
    "cra": 7285,
    "crc": 7286,
    "cre": 7287,
    "cri": 7288,
    "cro": 7289,
    "cru": 7290,
    "cry": 7291,
    "csr": 7292,
    "css": 7293,
    "csv": 7294,
    "cta": 7295,
    "ctl": 7296,
    "ctr": 7297,
    "ctu": 7298,
    "ctx": 7299,
    "cub": 7300,
    "cue": 7301,
    "cul": 7302,
    "cum": 7303,
    "cup": 7304,
    "cur": 7305,
    "cus": 7306,
    "cut": 7307,
    "cwd": 7308,
    "czy": 7309,
    "cé": 7310,
    "cí": 7311,
    "dac": 7312,
    "dad": 7313,
    "dag": 7314,
    "dal": 7315,
    "dam": 7316,
    "dan": 7317,
    "dao": 7318,
    "dap": 7319,
    "dar": 7320,
    "das": 7321,
    "dat": 7322,
    "dav": 7323,
    "day": 7324,
    "dbc": 7325,
    "dbg": 7326,
    "dbl": 7327,
    "ddd": 7328,
    "dea": 7329,
    "deb": 7330,
    "dec": 7331,
    "ded": 7332,
    "dee": 7333,
    "def": 7334,
    "deg": 7335,
    "dek": 7336,
    "del": 7337,
    "dem": 7338,
    "den": 7339,
    "dep": 7340,
    "der": 7341,
    "des": 7342,
    "det": 7343,
    "dev": 7344,
    "dex": 7345,
    "dez": 7346,
    "dfs": 7347,
    "dia": 7348,
    "dic": 7349,
    "did": 7350,
    "die": 7351,
    "dif": 7352,
    "dig": 7353,
    "dil": 7354,
    "dim": 7355,
    "din": 7356,
    "dio": 7357,
    "dip": 7358,
    "dir": 7359,
    "dis": 7360,
    "dit": 7361,
    "div": 7362,
    "dle": 7363,
    "dll": 7364,
    "dna": 7365,
    "dob": 7366,
    "doc": 7367,
    "dof": 7368,
    "dog": 7369,
    "doi": 7370,
    "dol": 7371,
    "dom": 7372,
    "don": 7373,
    "dor": 7374,
    "dos": 7375,
    "dot": 7376,
    "dou": 7377,
    "dpi": 7378,
    "dra": 7379,
    "dre": 7380,
    "dri": 7381,
    "dro": 7382,
    "drv": 7383,
    "dry": 7384,
    "dst": 7385,
    "dtd": 7386,
    "duc": 7387,
    "due": 7388,
    "dup": 7389,
    "dur": 7390,
    "dyn": 7391,
    "ead": 7392,
    "eah": 7393,
    "ean": 7394,
    "ear": 7395,
    "eas": 7396,
    "eat": 7397,
    "eau": 7398,
    "eba": 7399,
    "ebb": 7400,
    "eca": 7401,
    "ecc": 7402,
    "ecd": 7403,
    "ece": 7404,
    "ech": 7405,
    "eck": 7406,
    "ecl": 7407,
    "eco": 7408,
    "ecs": 7409,
    "ect": 7410,
    "eda": 7411,
    "edd": 7412,
    "ede": 7413,
    "edi": 7414,
    "edo": 7415,
    "eds": 7416,
    "edu": 7417,
    "edy": 7418,
    "eed": 7419,
    "een": 7420,
    "eer": 7421,
    "ees": 7422,
    "efe": 7423,
    "eff": 7424,
    "eft": 7425,
    "ega": 7426,
    "egg": 7427,
    "ego": 7428,
    "egr": 7429,
    "egu": 7430,
    "eil": 7431,
    "ein": 7432,
    "eka": 7433,
    "eki": 7434,
    "eks": 7435,
    "ekt": 7436,
    "ela": 7437,
    "eld": 7438,
    "ele": 7439,
    "elf": 7440,
    "eli": 7441,
    "ell": 7442,
    "elm": 7443,
    "eln": 7444,
    "elo": 7445,
    "elp": 7446,
    "els": 7447,
    "elt": 7448,
    "elu": 7449,
    "ely": 7450,
    "ema": 7451,
    "emb": 7452,
    "eme": 7453,
    "emi": 7454,
    "emn": 7455,
    "emo": 7456,
    "emp": 7457,
    "ems": 7458,
    "emu": 7459,
    "emy": 7460,
    "ena": 7461,
    "enc": 7462,
    "end": 7463,
    "ene": 7464,
    "enf": 7465,
    "eng": 7466,
    "enh": 7467,
    "eni": 7468,
    "enk": 7469,
    "enn": 7470,
    "eno": 7471,
    "ens": 7472,
    "ent": 7473,
    "enu": 7474,
    "env": 7475,
    "eny": 7476,
    "enz": 7477,
    "eof": 7478,
    "eon": 7479,
    "eor": 7480,
    "eph": 7481,
    "epi": 7482,
    "eps": 7483,
    "ept": 7484,
    "eqn": 7485,
    "equ": 7486,
    "era": 7487,
    "erb": 7488,
    "erc": 7489,
    "erd": 7490,
    "ere": 7491,
    "erg": 7492,
    "eri": 7493,
    "erk": 7494,
    "erm": 7495,
    "ern": 7496,
    "ero": 7497,
    "erp": 7498,
    "err": 7499,
    "ers": 7500,
    "ert": 7501,
    "erv": 7502,
    "ery": 7503,
    "esa": 7504,
    "esc": 7505,
    "ese": 7506,
    "esh": 7507,
    "esi": 7508,
    "esk": 7509,
    "eso": 7510,
    "esp": 7511,
    "ess": 7512,
    "est": 7513,
    "esy": 7514,
    "eta": 7515,
    "etc": 7516,
    "ete": 7517,
    "eth": 7518,
    "eti": 7519,
    "eto": 7520,
    "etr": 7521,
    "ets": 7522,
    "ett": 7523,
    "etu": 7524,
    "ety": 7525,
    "etz": 7526,
    "eur": 7527,
    "eus": 7528,
    "eva": 7529,
    "eve": 7530,
    "evt": 7531,
    "ews": 7532,
    "exc": 7533,
    "exe": 7534,
    "exp": 7535,
    "ext": 7536,
    "eye": 7537,
    "fab": 7538,
    "fac": 7539,
    "fal": 7540,
    "fan": 7541,
    "far": 7542,
    "fas": 7543,
    "fat": 7544,
    "fav": 7545,
    "fax": 7546,
    "feb": 7547,
    "fed": 7548,
    "fee": 7549,
    "fel": 7550,
    "fem": 7551,
    "fen": 7552,
    "fer": 7553,
    "fet": 7554,
    "few": 7555,
    "ffe": 7556,
    "fff": 7557,
    "ffi": 7558,
    "fft": 7559,
    "fib": 7560,
    "fic": 7561,
    "fid": 7562,
    "fif": 7563,
    "fig": 7564,
    "fil": 7565,
    "fin": 7566,
    "fir": 7567,
    "fit": 7568,
    "fix": 7569,
    "fld": 7570,
    "fle": 7571,
    "flo": 7572,
    "flu": 7573,
    "fly": 7574,
    "fmt": 7575,
    "fol": 7576,
    "fon": 7577,
    "foo": 7578,
    "for": 7579,
    "fos": 7580,
    "fox": 7581,
    "fra": 7582,
    "fre": 7583,
    "fri": 7584,
    "frm": 7585,
    "fro": 7586,
    "fst": 7587,
    "fte": 7588,
    "ftp": 7589,
    "fts": 7590,
    "fty": 7591,
    "ful": 7592,
    "fun": 7593,
    "fur": 7594,
    "fut": 7595,
    "fé": 7596,
    "fø": 7597,
    "fü": 7598,
    "gae": 7599,
    "gal": 7600,
    "gam": 7601,
    "gan": 7602,
    "gap": 7603,
    "gar": 7604,
    "gas": 7605,
    "gat": 7606,
    "gay": 7607,
    "gca": 7608,
    "gcc": 7609,
    "gcd": 7610,
    "geb": 7611,
    "ged": 7612,
    "geh": 7613,
    "gel": 7614,
    "gem": 7615,
    "gen": 7616,
    "geo": 7617,
    "geq": 7618,
    "ger": 7619,
    "ges": 7620,
    "get": 7621,
    "gew": 7622,
    "gex": 7623,
    "ght": 7624,
    "gia": 7625,
    "gid": 7626,
    "gie": 7627,
    "gif": 7628,
    "gil": 7629,
    "gin": 7630,
    "gio": 7631,
    "gis": 7632,
    "git": 7633,
    "gle": 7634,
    "gly": 7635,
    "gmt": 7636,
    "gnu": 7637,
    "god": 7638,
    "gol": 7639,
    "gom": 7640,
    "gon": 7641,
    "gor": 7642,
    "gos": 7643,
    "got": 7644,
    "gov": 7645,
    "gow": 7646,
    "gpu": 7647,
    "gra": 7648,
    "gre": 7649,
    "gro": 7650,
    "grp": 7651,
    "gru": 7652,
    "gte": 7653,
    "gtk": 7654,
    "gua": 7655,
    "gue": 7656,
    "gui": 7657,
    "gun": 7658,
    "gut": 7659,
    "hab": 7660,
    "had": 7661,
    "hai": 7662,
    "hal": 7663,
    "ham": 7664,
    "han": 7665,
    "hao": 7666,
    "hap": 7667,
    "har": 7668,
    "has": 7669,
    "hat": 7670,
    "hav": 7671,
    "haw": 7672,
    "hay": 7673,
    "haz": 7674,
    "hdr": 7675,
    "hea": 7676,
    "hed": 7677,
    "hee": 7678,
    "hei": 7679,
    "hel": 7680,
    "hem": 7681,
    "hen": 7682,
    "hep": 7683,
    "her": 7684,
    "hes": 7685,
    "het": 7686,
    "hev": 7687,
    "hew": 7688,
    "hex": 7689,
    "hey": 7690,
    "hib": 7691,
    "hic": 7692,
    "hid": 7693,
    "hig": 7694,
    "hil": 7695,
    "him": 7696,
    "hin": 7697,
    "hip": 7698,
    "hir": 7699,
    "his": 7700,
    "hit": 7701,
    "hma": 7702,
    "hoc": 7703,
    "hod": 7704,
    "hoe": 7705,
    "hof": 7706,
    "hog": 7707,
    "hol": 7708,
    "hom": 7709,
    "hon": 7710,
    "hop": 7711,
    "hor": 7712,
    "hos": 7713,
    "hot": 7714,
    "hou": 7715,
    "hov": 7716,
    "how": 7717,
    "hpp": 7718,
    "hra": 7719,
    "hta": 7720,
    "hti": 7721,
    "htm": 7722,
    "htt": 7723,
    "hua": 7724,
    "hub": 7725,
    "hue": 7726,
    "hui": 7727,
    "hum": 7728,
    "hur": 7729,
    "hus": 7730,
    "hyd": 7731,
    "hyp": 7732,
    "há": 7733,
    "hã": 7734,
    "hä": 7735,
    "hé": 7736,
    "hö": 7737,
    "iOS": 7738,
    "iac": 7739,
    "iae": 7740,
    "iah": 7741,
    "iak": 7742,
    "ial": 7743,
    "iam": 7744,
    "ian": 7745,
    "iao": 7746,
    "iar": 7747,
    "ias": 7748,
    "iat": 7749,
    "iaz": 7750,
    "iba": 7751,
    "ibe": 7752,
    "ibi": 7753,
    "ibo": 7754,
    "ibr": 7755,
    "ibu": 7756,
    "ica": 7757,
    "icc": 7758,
    "ice": 7759,
    "ich": 7760,
    "ici": 7761,
    "ick": 7762,
    "icl": 7763,
    "ico": 7764,
    "ics": 7765,
    "ict": 7766,
    "icy": 7767,
    "icz": 7768,
    "ida": 7769,
    "idd": 7770,
    "ide": 7771,
    "idi": 7772,
    "idl": 7773,
    "ido": 7774,
    "ids": 7775,
    "idx": 7776,
    "idy": 7777,
    "iec": 7778,
    "ied": 7779,
    "ief": 7780,
    "ieg": 7781,
    "iei": 7782,
    "iej": 7783,
    "iek": 7784,
    "iel": 7785,
    "iem": 7786,
    "ien": 7787,
    "ier": 7788,
    "ies": 7789,
    "iet": 7790,
    "ieu": 7791,
    "iev": 7792,
    "iew": 7793,
    "iez": 7794,
    "ifa": 7795,
    "ife": 7796,
    "iff": 7797,
    "ifi": 7798,
    "ifs": 7799,
    "ift": 7800,
    "ify": 7801,
    "iga": 7802,
    "ige": 7803,
    "igg": 7804,
    "igh": 7805,
    "igi": 7806,
    "igl": 7807,
    "igm": 7808,
    "ign": 7809,
    "igo": 7810,
    "igr": 7811,
    "igs": 7812,
    "igt": 7813,
    "igu": 7814,
    "iii": 7815,
    "ija": 7816,
    "ije": 7817,
    "iji": 7818,
    "ijk": 7819,
    "ijn": 7820,
    "ijo": 7821,
    "iju": 7822,
    "ika": 7823,
    "ike": 7824,
    "ikh": 7825,
    "iki": 7826,
    "ikk": 7827,
    "iko": 7828,
    "iks": 7829,
    "ikt": 7830,
    "iku": 7831,
    "ila": 7832,
    "ild": 7833,
    "ile": 7834,
    "ili": 7835,
    "ilk": 7836,
    "ill": 7837,
    "ilo": 7838,
    "ils": 7839,
    "ilt": 7840,
    "ily": 7841,
    "ima": 7842,
    "imb": 7843,
    "ime": 7844,
    "img": 7845,
    "imi": 7846,
    "imm": 7847,
    "imo": 7848,
    "imp": 7849,
    "ims": 7850,
    "ina": 7851,
    "inc": 7852,
    "ind": 7853,
    "ine": 7854,
    "inf": 7855,
    "ing": 7856,
    "inh": 7857,
    "ini": 7858,
    "inj": 7859,
    "ink": 7860,
    "inn": 7861,
    "ino": 7862,
    "inp": 7863,
    "ins": 7864,
    "int": 7865,
    "inu": 7866,
    "inv": 7867,
    "inx": 7868,
    "iny": 7869,
    "inz": 7870,
    "iod": 7871,
    "iol": 7872,
    "iom": 7873,
    "ion": 7874,
    "iop": 7875,
    "ior": 7876,
    "ios": 7877,
    "iot": 7878,
    "iou": 7879,
    "iov": 7880,
    "iox": 7881,
    "ipa": 7882,
    "ipe": 7883,
    "iph": 7884,
    "ipl": 7885,
    "ipo": 7886,
    "ipp": 7887,
    "ips": 7888,
    "ipt": 7889,
    "ipv": 7890,
    "ipy": 7891,
    "iqu": 7892,
    "ira": 7893,
    "irc": 7894,
    "ird": 7895,
    "ire": 7896,
    "iri": 7897,
    "irk": 7898,
    "irl": 7899,
    "irm": 7900,
    "iro": 7901,
    "irq": 7902,
    "irs": 7903,
    "irt": 7904,
    "iry": 7905,
    "isa": 7906,
    "isc": 7907,
    "isd": 7908,
    "ise": 7909,
    "isf": 7910,
    "ish": 7911,
    "isi": 7912,
    "isk": 7913,
    "isl": 7914,
    "ism": 7915,
    "iso": 7916,
    "isp": 7917,
    "iss": 7918,
    "ist": 7919,
    "isu": 7920,
    "isy": 7921,
    "isz": 7922,
    "ita": 7923,
    "ite": 7924,
    "ith": 7925,
    "iti": 7926,
    "itm": 7927,
    "ito": 7928,
    "itr": 7929,
    "its": 7930,
    "itt": 7931,
    "itu": 7932,
    "ity": 7933,
    "itz": 7934,
    "ium": 7935,
    "ius": 7936,
    "iva": 7937,
    "ive": 7938,
    "ivi": 7939,
    "ivo": 7940,
    "ivy": 7941,
    "ixa": 7942,
    "ixo": 7943,
    "iya": 7944,
    "iza": 7945,
    "ize": 7946,
    "izi": 7947,
    "izo": 7948,
    "izu": 7949,
    "izz": 7950,
    "iß": 7951,
    "ié": 7952,
    "ië": 7953,
    "ió": 7954,
    "ią": 7955,
    "ić": 7956,
    "ič": 7957,
    "ię": 7958,
    "ił": 7959,
    "iş": 7960,
    "iš": 7961,
    "jab": 7962,
    "jac": 7963,
    "jad": 7964,
    "jah": 7965,
    "jak": 7966,
    "jal": 7967,
    "jam": 7968,
    "jan": 7969,
    "jar": 7970,
    "jas": 7971,
    "jav": 7972,
    "jax": 7973,
    "jay": 7974,
    "jdk": 7975,
    "jee": 7976,
    "jel": 7977,
    "jem": 7978,
    "jen": 7979,
    "jer": 7980,
    "jes": 7981,
    "jet": 7982,
    "jid": 7983,
    "jin": 7984,
    "jis": 7985,
    "jit": 7986,
    "job": 7987,
    "jon": 7988,
    "jor": 7989,
    "jos": 7990,
    "jou": 7991,
    "joy": 7992,
    "jpg": 7993,
    "jsp": 7994,
    "jud": 7995,
    "jug": 7996,
    "jul": 7997,
    "jun": 7998,
    "jur": 7999,
    "jà": 8000,
    "jä": 8001,
    "jö": 8002,
    "jø": 8003,
    "ją": 8004,
    "ję": 8005,
    "kal": 8006,
    "kan": 8007,
    "kap": 8008,
    "kar": 8009,
    "kas": 8010,
    "kat": 8011,
    "ked": 8012,
    "kee": 8013,
    "keh": 8014,
    "kel": 8015,
    "ken": 8016,
    "ker": 8017,
    "kes": 8018,
    "ket": 8019,
    "key": 8020,
    "kid": 8021,
    "kie": 8022,
    "kil": 8023,
    "kim": 8024,
    "kin": 8025,
    "kip": 8026,
    "kir": 8027,
    "kit": 8028,
    "kle": 8029,
    "kok": 8030,
    "kol": 8031,
    "kom": 8032,
    "kon": 8033,
    "kop": 8034,
    "kor": 8035,
    "kos": 8036,
    "kov": 8037,
    "kow": 8038,
    "ksi": 8039,
    "kte": 8040,
    "kun": 8041,
    "kur": 8042,
    "kus": 8043,
    "ká": 8044,
    "kä": 8045,
    "ké": 8046,
    "kö": 8047,
    "ką": 8048,
    "kę": 8049,
    "lab": 8050,
    "lac": 8051,
    "lad": 8052,
    "lag": 8053,
    "lah": 8054,
    "lam": 8055,
    "lan": 8056,
    "lap": 8057,
    "lar": 8058,
    "las": 8059,
    "lat": 8060,
    "lav": 8061,
    "law": 8062,
    "lay": 8063,
    "lbl": 8064,
    "lea": 8065,
    "lec": 8066,
    "led": 8067,
    "lee": 8068,
    "lef": 8069,
    "leg": 8070,
    "lei": 8071,
    "lek": 8072,
    "lem": 8073,
    "len": 8074,
    "lep": 8075,
    "leq": 8076,
    "ler": 8077,
    "les": 8078,
    "let": 8079,
    "lev": 8080,
    "lew": 8081,
    "lex": 8082,
    "ley": 8083,
    "lez": 8084,
    "lia": 8085,
    "lib": 8086,
    "lic": 8087,
    "lid": 8088,
    "lie": 8089,
    "lif": 8090,
    "lig": 8091,
    "lij": 8092,
    "lik": 8093,
    "lim": 8094,
    "lin": 8095,
    "lio": 8096,
    "lip": 8097,
    "lis": 8098,
    "lit": 8099,
    "liv": 8100,
    "lla": 8101,
    "lle": 8102,
    "lli": 8103,
    "llo": 8104,
    "lng": 8105,
    "lob": 8106,
    "loc": 8107,
    "lod": 8108,
    "loe": 8109,
    "log": 8110,
    "lon": 8111,
    "loo": 8112,
    "lop": 8113,
    "lor": 8114,
    "los": 8115,
    "lot": 8116,
    "lou": 8117,
    "lov": 8118,
    "low": 8119,
    "loy": 8120,
    "lst": 8121,
    "lua": 8122,
    "luc": 8123,
    "lum": 8124,
    "lun": 8125,
    "lus": 8126,
    "lut": 8127,
    "lux": 8128,
    "lvl": 8129,
    "lyn": 8130,
    "lys": 8131,
    "là": 8132,
    "lá": 8133,
    "lä": 8134,
    "lé": 8135,
    "ló": 8136,
    "lö": 8137,
    "lą": 8138,
    "lı": 8139,
    "mAh": 8140,
    "mac": 8141,
    "mad": 8142,
    "mag": 8143,
    "mai": 8144,
    "maj": 8145,
    "mak": 8146,
    "mal": 8147,
    "man": 8148,
    "map": 8149,
    "mar": 8150,
    "mas": 8151,
    "mat": 8152,
    "max": 8153,
    "may": 8154,
    "maz": 8155,
    "mbH": 8156,
    "med": 8157,
    "meg": 8158,
    "mek": 8159,
    "mel": 8160,
    "mem": 8161,
    "men": 8162,
    "mer": 8163,
    "mes": 8164,
    "met": 8165,
    "mez": 8166,
    "mgr": 8167,
    "mia": 8168,
    "mic": 8169,
    "mid": 8170,
    "mie": 8171,
    "mil": 8172,
    "mim": 8173,
    "min": 8174,
    "mir": 8175,
    "mis": 8176,
    "mit": 8177,
    "mix": 8178,
    "mma": 8179,
    "mmm": 8180,
    "mob": 8181,
    "mod": 8182,
    "mol": 8183,
    "mom": 8184,
    "mon": 8185,
    "mor": 8186,
    "mos": 8187,
    "mot": 8188,
    "mov": 8189,
    "moz": 8190,
    "mph": 8191,
    "mpi": 8192,
    "mpl": 8193,
    "mse": 8194,
    "msg": 8195,
    "mud": 8196,
    "mul": 8197,
    "mun": 8198,
    "mur": 8199,
    "mus": 8200,
    "mut": 8201,
    "mux": 8202,
    "mys": 8203,
    "mé": 8204,
    "nad": 8205,
    "nah": 8206,
    "nai": 8207,
    "nak": 8208,
    "nal": 8209,
    "nam": 8210,
    "nan": 8211,
    "nap": 8212,
    "nar": 8213,
    "nas": 8214,
    "nat": 8215,
    "nav": 8216,
    "nbr": 8217,
    "nce": 8218,
    "nda": 8219,
    "nds": 8220,
    "nea": 8221,
    "ned": 8222,
    "nee": 8223,
    "neg": 8224,
    "neh": 8225,
    "nej": 8226,
    "nek": 8227,
    "nel": 8228,
    "nem": 8229,
    "nen": 8230,
    "neo": 8231,
    "neq": 8232,
    "ner": 8233,
    "nes": 8234,
    "net": 8235,
    "neu": 8236,
    "new": 8237,
    "nex": 8238,
    "ney": 8239,
    "nez": 8240,
    "nia": 8241,
    "nic": 8242,
    "nie": 8243,
    "nih": 8244,
    "nik": 8245,
    "nil": 8246,
    "nim": 8247,
    "nin": 8248,
    "nio": 8249,
    "nis": 8250,
    "nit": 8251,
    "nob": 8252,
    "noc": 8253,
    "nod": 8254,
    "nom": 8255,
    "non": 8256,
    "nop": 8257,
    "nor": 8258,
    "nos": 8259,
    "not": 8260,
    "nou": 8261,
    "nov": 8262,
    "now": 8263,
    "nox": 8264,
    "npc": 8265,
    "npm": 8266,
    "npy": 8267,
    "nth": 8268,
    "num": 8269,
    "nut": 8270,
    "nya": 8271,
    "ná": 8272,
    "né": 8273,
    "ní": 8274,
    "ný": 8275,
    "ną": 8276,
    "nę": 8277,
    "ně": 8278,
    "oad": 8279,
    "oba": 8280,
    "obb": 8281,
    "obe": 8282,
    "obi": 8283,
    "obj": 8284,
    "obl": 8285,
    "obo": 8286,
    "obs": 8287,
    "oby": 8288,
    "oca": 8289,
    "occ": 8290,
    "oce": 8291,
    "och": 8292,
    "oci": 8293,
    "ock": 8294,
    "ocl": 8295,
    "oco": 8296,
    "ocr": 8297,
    "ocs": 8298,
    "oct": 8299,
    "ocy": 8300,
    "oda": 8301,
    "odb": 8302,
    "odd": 8303,
    "ode": 8304,
    "odi": 8305,
    "odo": 8306,
    "ods": 8307,
    "ody": 8308,
    "oen": 8309,
    "oes": 8310,
    "off": 8311,
    "ofs": 8312,
    "oft": 8313,
    "oga": 8314,
    "oge": 8315,
    "ogg": 8316,
    "ogh": 8317,
    "ogi": 8318,
    "ogl": 8319,
    "ogn": 8320,
    "ogo": 8321,
    "ogr": 8322,
    "ogs": 8323,
    "ogy": 8324,
    "ohl": 8325,
    "ohn": 8326,
    "oho": 8327,
    "oid": 8328,
    "oil": 8329,
    "oin": 8330,
    "oir": 8331,
    "ois": 8332,
    "oit": 8333,
    "oka": 8334,
    "oke": 8335,
    "oki": 8336,
    "oko": 8337,
    "oks": 8338,
    "oku": 8339,
    "oky": 8340,
    "ola": 8341,
    "old": 8342,
    "ole": 8343,
    "olf": 8344,
    "oli": 8345,
    "olk": 8346,
    "oll": 8347,
    "oln": 8348,
    "olo": 8349,
    "ols": 8350,
    "olt": 8351,
    "olu": 8352,
    "oly": 8353,
    "oma": 8354,
    "omb": 8355,
    "ome": 8356,
    "omi": 8357,
    "omm": 8358,
    "omo": 8359,
    "omp": 8360,
    "oms": 8361,
    "omy": 8362,
    "ona": 8363,
    "onc": 8364,
    "ond": 8365,
    "one": 8366,
    "ong": 8367,
    "oni": 8368,
    "onn": 8369,
    "ono": 8370,
    "ons": 8371,
    "ont": 8372,
    "ony": 8373,
    "onz": 8374,
    "ood": 8375,
    "ook": 8376,
    "ool": 8377,
    "oom": 8378,
    "oon": 8379,
    "ooo": 8380,
    "oop": 8381,
    "oor": 8382,
    "oot": 8383,
    "opa": 8384,
    "ope": 8385,
    "opf": 8386,
    "oph": 8387,
    "opi": 8388,
    "opl": 8389,
    "opo": 8390,
    "opp": 8391,
    "ops": 8392,
    "opt": 8393,
    "opy": 8394,
    "ora": 8395,
    "orb": 8396,
    "orc": 8397,
    "ord": 8398,
    "ore": 8399,
    "orf": 8400,
    "org": 8401,
    "ori": 8402,
    "ork": 8403,
    "orm": 8404,
    "orn": 8405,
    "oro": 8406,
    "orp": 8407,
    "orr": 8408,
    "ors": 8409,
    "ort": 8410,
    "oru": 8411,
    "ory": 8412,
    "osa": 8413,
    "osc": 8414,
    "ose": 8415,
    "osh": 8416,
    "osi": 8417,
    "oso": 8418,
    "osp": 8419,
    "oss": 8420,
    "ost": 8421,
    "ota": 8422,
    "ote": 8423,
    "oth": 8424,
    "oti": 8425,
    "oto": 8426,
    "ots": 8427,
    "ott": 8428,
    "oty": 8429,
    "oub": 8430,
    "oud": 8431,
    "oug": 8432,
    "oui": 8433,
    "ouk": 8434,
    "oul": 8435,
    "oun": 8436,
    "oup": 8437,
    "our": 8438,
    "ous": 8439,
    "out": 8440,
    "ouv": 8441,
    "oux": 8442,
    "ova": 8443,
    "ove": 8444,
    "ovi": 8445,
    "ovo": 8446,
    "ovy": 8447,
    "owa": 8448,
    "owe": 8449,
    "owi": 8450,
    "owl": 8451,
    "own": 8452,
    "owo": 8453,
    "ows": 8454,
    "owy": 8455,
    "oxy": 8456,
    "oya": 8457,
    "oyo": 8458,
    "ozo": 8459,
    "ozy": 8460,
    "oł": 8461,
    "pac": 8462,
    "pad": 8463,
    "pag": 8464,
    "pak": 8465,
    "pal": 8466,
    "pan": 8467,
    "pap": 8468,
    "par": 8469,
    "pas": 8470,
    "pat": 8471,
    "pay": 8472,
    "pci": 8473,
    "pdb": 8474,
    "pdf": 8475,
    "pec": 8476,
    "ped": 8477,
    "pee": 8478,
    "peg": 8479,
    "pei": 8480,
    "pel": 8481,
    "pem": 8482,
    "pen": 8483,
    "per": 8484,
    "pes": 8485,
    "pet": 8486,
    "pex": 8487,
    "pez": 8488,
    "pha": 8489,
    "phe": 8490,
    "phi": 8491,
    "php": 8492,
    "phy": 8493,
    "pic": 8494,
    "pid": 8495,
    "pie": 8496,
    "pig": 8497,
    "pin": 8498,
    "pio": 8499,
    "pip": 8500,
    "pir": 8501,
    "pis": 8502,
    "pit": 8503,
    "pix": 8504,
    "pkg": 8505,
    "pkl": 8506,
    "pla": 8507,
    "ple": 8508,
    "plt": 8509,
    "ply": 8510,
    "png": 8511,
    "pod": 8512,
    "pol": 8513,
    "pom": 8514,
    "pon": 8515,
    "pop": 8516,
    "por": 8517,
    "pos": 8518,
    "pot": 8519,
    "pow": 8520,
    "ppa": 8521,
    "ppe": 8522,
    "ppo": 8523,
    "pps": 8524,
    "ppy": 8525,
    "pra": 8526,
    "pre": 8527,
    "pri": 8528,
    "pro": 8529,
    "psi": 8530,
    "psy": 8531,
    "pta": 8532,
    "pte": 8533,
    "pth": 8534,
    "pto": 8535,
    "ptr": 8536,
    "pts": 8537,
    "pty": 8538,
    "pub": 8539,
    "pul": 8540,
    "pun": 8541,
    "pur": 8542,
    "pus": 8543,
    "put": 8544,
    "pwd": 8545,
    "qrt": 8546,
    "qty": 8547,
    "qua": 8548,
    "que": 8549,
    "qui": 8550,
    "quo": 8551,
    "rab": 8552,
    "rac": 8553,
    "rad": 8554,
    "rae": 8555,
    "raf": 8556,
    "rag": 8557,
    "rah": 8558,
    "rai": 8559,
    "raj": 8560,
    "rak": 8561,
    "ral": 8562,
    "ram": 8563,
    "ran": 8564,
    "rap": 8565,
    "raq": 8566,
    "rar": 8567,
    "ras": 8568,
    "rat": 8569,
    "rav": 8570,
    "raw": 8571,
    "rax": 8572,
    "ray": 8573,
    "raz": 8574,
    "rdf": 8575,
    "rea": 8576,
    "reb": 8577,
    "rec": 8578,
    "red": 8579,
    "ree": 8580,
    "ref": 8581,
    "reg": 8582,
    "reh": 8583,
    "rei": 8584,
    "rek": 8585,
    "rel": 8586,
    "rem": 8587,
    "ren": 8588,
    "reo": 8589,
    "rep": 8590,
    "req": 8591,
    "rer": 8592,
    "res": 8593,
    "ret": 8594,
    "reu": 8595,
    "rev": 8596,
    "rew": 8597,
    "rex": 8598,
    "rey": 8599,
    "rez": 8600,
    "rgb": 8601,
    "rho": 8602,
    "rhs": 8603,
    "ria": 8604,
    "rib": 8605,
    "ric": 8606,
    "rid": 8607,
    "rie": 8608,
    "rif": 8609,
    "rig": 8610,
    "rij": 8611,
    "rik": 8612,
    "ril": 8613,
    "rim": 8614,
    "rin": 8615,
    "rio": 8616,
    "rip": 8617,
    "rir": 8618,
    "ris": 8619,
    "rit": 8620,
    "riv": 8621,
    "rix": 8622,
    "riz": 8623,
    "rms": 8624,
    "rna": 8625,
    "rnd": 8626,
    "rng": 8627,
    "rnn": 8628,
    "rob": 8629,
    "roc": 8630,
    "rod": 8631,
    "roe": 8632,
    "rog": 8633,
    "roi": 8634,
    "rok": 8635,
    "rol": 8636,
    "rom": 8637,
    "ron": 8638,
    "rop": 8639,
    "ror": 8640,
    "ros": 8641,
    "rot": 8642,
    "rou": 8643,
    "rov": 8644,
    "row": 8645,
    "rox": 8646,
    "roy": 8647,
    "roz": 8648,
    "rpc": 8649,
    "rpm": 8650,
    "rsa": 8651,
    "rsp": 8652,
    "rss": 8653,
    "rst": 8654,
    "rtl": 8655,
    "rub": 8656,
    "rud": 8657,
    "rue": 8658,
    "rug": 8659,
    "rum": 8660,
    "run": 8661,
    "rup": 8662,
    "rus": 8663,
    "rut": 8664,
    "ryn": 8665,
    "rys": 8666,
    "rà": 8667,
    "rá": 8668,
    "rä": 8669,
    "rå": 8670,
    "ré": 8671,
    "rí": 8672,
    "ró": 8673,
    "rę": 8674,
    "sac": 8675,
    "sad": 8676,
    "saf": 8677,
    "sal": 8678,
    "sam": 8679,
    "san": 8680,
    "sar": 8681,
    "sas": 8682,
    "sat": 8683,
    "sav": 8684,
    "saw": 8685,
    "say": 8686,
    "sce": 8687,
    "sch": 8688,
    "sci": 8689,
    "scr": 8690,
    "sdk": 8691,
    "sea": 8692,
    "sec": 8693,
    "sed": 8694,
    "see": 8695,
    "seg": 8696,
    "sei": 8697,
    "sek": 8698,
    "sel": 8699,
    "sem": 8700,
    "sen": 8701,
    "sep": 8702,
    "seq": 8703,
    "ser": 8704,
    "ses": 8705,
    "set": 8706,
    "sex": 8707,
    "sey": 8708,
    "sez": 8709,
    "sha": 8710,
    "she": 8711,
    "shi": 8712,
    "shr": 8713,
    "sic": 8714,
    "sid": 8715,
    "sie": 8716,
    "sig": 8717,
    "sil": 8718,
    "sim": 8719,
    "sin": 8720,
    "sis": 8721,
    "sit": 8722,
    "six": 8723,
    "ska": 8724,
    "ske": 8725,
    "ski": 8726,
    "sku": 8727,
    "sky": 8728,
    "snd": 8729,
    "soc": 8730,
    "sof": 8731,
    "sol": 8732,
    "som": 8733,
    "son": 8734,
    "sor": 8735,
    "sov": 8736,
    "spe": 8737,
    "spi": 8738,
    "spl": 8739,
    "spo": 8740,
    "spr": 8741,
    "spy": 8742,
    "sql": 8743,
    "squ": 8744,
    "src": 8745,
    "ssa": 8746,
    "ssh": 8747,
    "ssl": 8748,
    "sta": 8749,
    "std": 8750,
    "ste": 8751,
    "sth": 8752,
    "sti": 8753,
    "stm": 8754,
    "sto": 8755,
    "str": 8756,
    "sts": 8757,
    "stu": 8758,
    "sty": 8759,
    "sub": 8760,
    "suc": 8761,
    "sum": 8762,
    "sun": 8763,
    "sup": 8764,
    "sur": 8765,
    "sus": 8766,
    "svg": 8767,
    "svn": 8768,
    "swe": 8769,
    "sym": 8770,
    "syn": 8771,
    "sys": 8772,
    "tab": 8773,
    "tag": 8774,
    "tah": 8775,
    "tal": 8776,
    "tam": 8777,
    "tan": 8778,
    "tap": 8779,
    "tar": 8780,
    "tas": 8781,
    "tat": 8782,
    "tau": 8783,
    "tax": 8784,
    "tbl": 8785,
    "tcp": 8786,
    "tea": 8787,
    "tec": 8788,
    "ted": 8789,
    "tee": 8790,
    "tek": 8791,
    "tel": 8792,
    "tem": 8793,
    "ten": 8794,
    "ter": 8795,
    "tes": 8796,
    "tet": 8797,
    "tex": 8798,
    "tgt": 8799,
    "tha": 8800,
    "the": 8801,
    "thi": 8802,
    "thm": 8803,
    "thr": 8804,
    "ths": 8805,
    "thy": 8806,
    "tic": 8807,
    "tid": 8808,
    "tie": 8809,
    "tif": 8810,
    "tig": 8811,
    "tik": 8812,
    "til": 8813,
    "tim": 8814,
    "tin": 8815,
    "tip": 8816,
    "tis": 8817,
    "tit": 8818,
    "tle": 8819,
    "tls": 8820,
    "tml": 8821,
    "tmp": 8822,
    "toc": 8823,
    "tod": 8824,
    "tok": 8825,
    "tol": 8826,
    "tom": 8827,
    "ton": 8828,
    "too": 8829,
    "top": 8830,
    "tor": 8831,
    "tos": 8832,
    "tot": 8833,
    "tow": 8834,
    "tpl": 8835,
    "tra": 8836,
    "tre": 8837,
    "tri": 8838,
    "trl": 8839,
    "tro": 8840,
    "tru": 8841,
    "try": 8842,
    "tte": 8843,
    "tti": 8844,
    "ttl": 8845,
    "ttp": 8846,
    "tty": 8847,
    "tum": 8848,
    "tun": 8849,
    "tur": 8850,
    "two": 8851,
    "txt": 8852,
    "typ": 8853,
    "té": 8854,
    "tó": 8855,
    "ual": 8856,
    "uan": 8857,
    "uar": 8858,
    "uba": 8859,
    "ubb": 8860,
    "ube": 8861,
    "ubi": 8862,
    "ubl": 8863,
    "ubs": 8864,
    "uby": 8865,
    "uca": 8866,
    "ucc": 8867,
    "uce": 8868,
    "uch": 8869,
    "uci": 8870,
    "uck": 8871,
    "uct": 8872,
    "uda": 8873,
    "udd": 8874,
    "ude": 8875,
    "udi": 8876,
    "udo": 8877,
    "uds": 8878,
    "ued": 8879,
    "uel": 8880,
    "uen": 8881,
    "uer": 8882,
    "ues": 8883,
    "uet": 8884,
    "uez": 8885,
    "ufe": 8886,
    "uff": 8887,
    "uga": 8888,
    "uge": 8889,
    "ugg": 8890,
    "ugh": 8891,
    "ugi": 8892,
    "ugo": 8893,
    "ugs": 8894,
    "ugu": 8895,
    "uid": 8896,
    "uil": 8897,
    "uin": 8898,
    "uir": 8899,
    "uis": 8900,
    "uit": 8901,
    "uje": 8902,
    "uka": 8903,
    "uke": 8904,
    "uki": 8905,
    "uko": 8906,
    "uks": 8907,
    "uku": 8908,
    "ula": 8909,
    "uld": 8910,
    "ule": 8911,
    "ulf": 8912,
    "uli": 8913,
    "ulk": 8914,
    "ull": 8915,
    "ulo": 8916,
    "ulp": 8917,
    "uls": 8918,
    "ult": 8919,
    "ulu": 8920,
    "uly": 8921,
    "uma": 8922,
    "umb": 8923,
    "ume": 8924,
    "umi": 8925,
    "uml": 8926,
    "umm": 8927,
    "umn": 8928,
    "umo": 8929,
    "ump": 8930,
    "ums": 8931,
    "umu": 8932,
    "una": 8933,
    "unc": 8934,
    "und": 8935,
    "une": 8936,
    "ung": 8937,
    "uni": 8938,
    "unj": 8939,
    "unk": 8940,
    "unn": 8941,
    "uno": 8942,
    "uns": 8943,
    "unt": 8944,
    "upa": 8945,
    "upe": 8946,
    "upo": 8947,
    "upp": 8948,
    "ups": 8949,
    "upt": 8950,
    "ura": 8951,
    "urb": 8952,
    "urd": 8953,
    "ure": 8954,
    "urf": 8955,
    "urg": 8956,
    "uri": 8957,
    "urk": 8958,
    "url": 8959,
    "urm": 8960,
    "urn": 8961,
    "uro": 8962,
    "urr": 8963,
    "urs": 8964,
    "urt": 8965,
    "uru": 8966,
    "ury": 8967,
    "usa": 8968,
    "usb": 8969,
    "usc": 8970,
    "use": 8971,
    "ush": 8972,
    "usi": 8973,
    "usk": 8974,
    "uso": 8975,
    "usp": 8976,
    "usr": 8977,
    "uss": 8978,
    "ust": 8979,
    "usu": 8980,
    "usz": 8981,
    "uta": 8982,
    "utc": 8983,
    "ute": 8984,
    "utf": 8985,
    "uth": 8986,
    "uti": 8987,
    "utm": 8988,
    "uto": 8989,
    "uts": 8990,
    "utt": 8991,
    "uty": 8992,
    "utz": 8993,
    "uum": 8994,
    "uve": 8995,
    "uvo": 8996,
    "uxe": 8997,
    "uya": 8998,
    "uzz": 8999,
    "uß": 9000,
    "ué": 9001,
    "uí": 9002,
    "už": 9003,
    "vac": 9004,
    "vae": 9005,
    "val": 9006,
    "van": 9007,
    "var": 9008,
    "vas": 9009,
    "vat": 9010,
    "vec": 9011,
    "ved": 9012,
    "vee": 9013,
    "veg": 9014,
    "veh": 9015,
    "vel": 9016,
    "ven": 9017,
    "ver": 9018,
    "ves": 9019,
    "vet": 9020,
    "vex": 9021,
    "vey": 9022,
    "vez": 9023,
    "via": 9024,
    "vic": 9025,
    "vid": 9026,
    "vie": 9027,
    "vig": 9028,
    "vii": 9029,
    "vik": 9030,
    "vil": 9031,
    "vim": 9032,
    "vin": 9033,
    "vio": 9034,
    "vip": 9035,
    "vir": 9036,
    "vis": 9037,
    "vit": 9038,
    "viv": 9039,
    "viz": 9040,
    "voc": 9041,
    "vod": 9042,
    "vol": 9043,
    "von": 9044,
    "vor": 9045,
    "vos": 9046,
    "vox": 9047,
    "voy": 9048,
    "vre": 9049,
    "vue": 9050,
    "vá": 9051,
    "vä": 9052,
    "vé": 9053,
    "ví": 9054,
    "vě": 9055,
    "wal": 9056,
    "wan": 9057,
    "wap": 9058,
    "war": 9059,
    "was": 9060,
    "wat": 9061,
    "wav": 9062,
    "way": 9063,
    "web": 9064,
    "wed": 9065,
    "weg": 9066,
    "wei": 9067,
    "wel": 9068,
    "wen": 9069,
    "wer": 9070,
    "wet": 9071,
    "whe": 9072,
    "who": 9073,
    "why": 9074,
    "wid": 9075,
    "wie": 9076,
    "wig": 9077,
    "wik": 9078,
    "wil": 9079,
    "win": 9080,
    "wis": 9081,
    "wit": 9082,
    "wol": 9083,
    "won": 9084,
    "wor": 9085,
    "www": 9086,
    "wyn": 9087,
    "xFF": 9088,
    "xcb": 9089,
    "xed": 9090,
    "xes": 9091,
    "xfe": 9092,
    "xff": 9093,
    "xhr": 9094,
    "xia": 9095,
    "xic": 9096,
    "xim": 9097,
    "xin": 9098,
    "xis": 9099,
    "xit": 9100,
    "xiv": 9101,
    "xls": 9102,
    "xml": 9103,
    "xon": 9104,
    "xor": 9105,
    "xsd": 9106,
    "xsl": 9107,
    "xxx": 9108,
    "xyz": 9109,
    "yah": 9110,
    "yal": 9111,
    "yam": 9112,
    "yan": 9113,
    "yar": 9114,
    "yaw": 9115,
    "ych": 9116,
    "ycl": 9117,
    "yel": 9118,
    "yen": 9119,
    "yer": 9120,
    "yes": 9121,
    "yet": 9122,
    "yla": 9123,
    "yle": 9124,
    "yll": 9125,
    "yme": 9126,
    "yml": 9127,
    "yna": 9128,
    "ync": 9129,
    "yne": 9130,
    "ynn": 9131,
    "ynt": 9132,
    "yon": 9133,
    "yor": 9134,
    "you": 9135,
    "ype": 9136,
    "yre": 9137,
    "ysi": 9138,
    "yst": 9139,
    "ysz": 9140,
    "yth": 9141,
    "yun": 9142,
    "yyy": 9143,
    "yó": 9144,
    "zag": 9145,
    "zak": 9146,
    "zan": 9147,
    "zar": 9148,
    "zas": 9149,
    "zed": 9150,
    "zee": 9151,
    "zej": 9152,
    "zek": 9153,
    "zel": 9154,
    "zem": 9155,
    "zen": 9156,
    "zer": 9157,
    "zes": 9158,
    "zet": 9159,
    "zew": 9160,
    "zia": 9161,
    "zie": 9162,
    "zig": 9163,
    "zik": 9164,
    "zin": 9165,
    "zip": 9166,
    "zon": 9167,
    "zor": 9168,
    "zos": 9169,
    "zyk": 9170,
    "zym": 9171,
    "zza": 9172,
    "zzi": 9173,
    "zzo": 9174,
    "zá": 9175,
    "zó": 9176,
    "zą": 9177,
    "zę": 9178,
    "ző": 9179,
    "{{\\\\": 9180,
    "{})": 9181,
    "{},": 9182,
    "{}.": 9183,
    "{}\\\\": 9184,
    "{}_": 9185,
    "}\")": 9186,
    "}\",": 9187,
    "}$$": 9188,
    "}')": 9189,
    "}',": 9190,
    "}))": 9191,
    "}),": 9192,
    "}).": 9193,
    "});": 9194,
    "})\\\\": 9195,
    "},\"": 9196,
    "},{": 9197,
    "}.{": 9198,
    "}/{": 9199,
    "}:{": 9200,
    "}</": 9201,
    "}=\\\\": 9202,
    "}\\\\\\\\": 9203,
    "}^{": 9204,
    "}_{": 9205,
    "}{\\\\": 9206,
    "}}\"": 9207,
    "}}$": 9208,
    "}})": 9209,
    "}},": 9210,
    "}}=": 9211,
    "}}\\\\": 9212,
    "}}{": 9213,
    "}}}": 9214,
    "~~~": 9215,
    "®,": 9216,
    "°,": 9217,
    "°C": 9218,
    "°F": 9219,
    "²,": 9220,
    "².": 9221,
    "´s": 9222,
    "»)": 9223,
    "»,": 9224,
    "».": 9225,
    "ÃO": 9226,
    "Ét": 9227,
    "ÓN": 9228,
    "ße": 9229,
    "ài": 9230,
    "àn": 9231,
    "ào": 9232,
    "àt": 9233,
    "ày": 9234,
    "áb": 9235,
    "ác": 9236,
    "ád": 9237,
    "áf": 9238,
    "ág": 9239,
    "ái": 9240,
    "áj": 9241,
    "ák": 9242,
    "ál": 9243,
    "ám": 9244,
    "án": 9245,
    "áo": 9246,
    "áp": 9247,
    "ár": 9248,
    "ás": 9249,
    "át": 9250,
    "áv": 9251,
    "áz": 9252,
    "âm": 9253,
    "ân": 9254,
    "âr": 9255,
    "ât": 9256,
    "âu": 9257,
    "ây": 9258,
    "ão": 9259,
    "äd": 9260,
    "äg": 9261,
    "äh": 9262,
    "äl": 9263,
    "äm": 9264,
    "än": 9265,
    "är": 9266,
    "äs": 9267,
    "ät": 9268,
    "äu": 9269,
    "åk": 9270,
    "ål": 9271,
    "ån": 9272,
    "år": 9273,
    "æk": 9274,
    "æn": 9275,
    "ær": 9276,
    "æs": 9277,
    "ça": 9278,
    "ço": 9279,
    "çu": 9280,
    "èg": 9281,
    "èn": 9282,
    "ès": 9283,
    "èt": 9284,
    "éb": 9285,
    "éc": 9286,
    "éd": 9287,
    "ée": 9288,
    "éf": 9289,
    "ég": 9290,
    "ék": 9291,
    "él": 9292,
    "ém": 9293,
    "én": 9294,
    "éo": 9295,
    "ép": 9296,
    "ér": 9297,
    "és": 9298,
    "ét": 9299,
    "év": 9300,
    "êm": 9301,
    "ên": 9302,
    "ês": 9303,
    "êt": 9304,
    "êu": 9305,
    "ël": 9306,
    "ën": 9307,
    "ër": 9308,
    "ës": 9309,
    "ët": 9310,
    "ía": 9311,
    "íc": 9312,
    "íd": 9313,
    "íf": 9314,
    "íg": 9315,
    "ík": 9316,
    "íl": 9317,
    "ím": 9318,
    "ín": 9319,
    "ío": 9320,
    "íp": 9321,
    "ír": 9322,
    "ís": 9323,
    "ít": 9324,
    "ív": 9325,
    "íz": 9326,
    "în": 9327,
    "ît": 9328,
    "ña": 9329,
    "ño": 9330,
    "òn": 9331,
    "óa": 9332,
    "ób": 9333,
    "ód": 9334,
    "óg": 9335,
    "ój": 9336,
    "ók": 9337,
    "ól": 9338,
    "óm": 9339,
    "ón": 9340,
    "óp": 9341,
    "ór": 9342,
    "ós": 9343,
    "ót": 9344,
    "ów": 9345,
    "ôi": 9346,
    "ôm": 9347,
    "ôn": 9348,
    "ôt": 9349,
    "öd": 9350,
    "ög": 9351,
    "öh": 9352,
    "ök": 9353,
    "öl": 9354,
    "öm": 9355,
    "ön": 9356,
    "ör": 9357,
    "ös": 9358,
    "öt": 9359,
    "öv": 9360,
    "öz": 9361,
    "ød": 9362,
    "øj": 9363,
    "ør": 9364,
    "øy": 9365,
    "úa": 9366,
    "úb": 9367,
    "úc": 9368,
    "úl": 9369,
    "ún": 9370,
    "ús": 9371,
    "út": 9372,
    "ût": 9373,
    "üb": 9374,
    "üd": 9375,
    "üg": 9376,
    "üh": 9377,
    "ük": 9378,
    "ül": 9379,
    "üm": 9380,
    "ün": 9381,
    "ür": 9382,
    "üs": 9383,
    "üt": 9384,
    "üz": 9385,
    "ým": 9386,
    "ýt": 9387,
    "ād": 9388,
    "āk": 9389,
    "ām": 9390,
    "ān": 9391,
    "ār": 9392,
    "ās": 9393,
    "āt": 9394,
    "ăm": 9395,
    "ăn": 9396,
    "ăr": 9397,
    "ăt": 9398,
    "ąc": 9399,
    "ąd": 9400,
    "ąg": 9401,
    "ąz": 9402,
    "će": 9403,
    "ći": 9404,
    "če": 9405,
    "či": 9406,
    "ēr": 9407,
    "ēt": 9408,
    "ęd": 9409,
    "ęk": 9410,
    "ęp": 9411,
    "ěl": 9412,
    "ět": 9413,
    "ği": 9414,
    "īt": 9415,
    "ık": 9416,
    "ıl": 9417,
    "ım": 9418,
    "ın": 9419,
    "ır": 9420,
    "ıs": 9421,
    "ız": 9422,
    "ła": 9423,
    "łe": 9424,
    "ło": 9425,
    "łu": 9426,
    "ły": 9427,
    "őd": 9428,
    "ők": 9429,
    "ől": 9430,
    "ős": 9431,
    "ře": 9432,
    "ři": 9433,
    "śc": 9434,
    "şt": 9435,
    "ša": 9436,
    "še": 9437,
    "ši": 9438,
    "št": 9439,
    "ţi": 9440,
    "ům": 9441,
    "że": 9442,
    "żs": 9443,
    "ży": 9444,
    "že": 9445,
    "ơi": 9446,
    "ơn": 9447,
    "ưa": 9448,
    "și": 9449,
    "ța": 9450,
    "ți": 9451,
    "κB": 9452,
    "μL": 9453,
    "μM": 9454,
    "μg": 9455,
    "μl": 9456,
    "μm": 9457,
    "ं": 9458,
    "अ": 9459,
    "आ": 9460,
    "क": 9461,
    "ख": 9462,
    "ग": 9463,
    "च": 9464,
    "ज": 9465,
    "ट": 9466,
    "ड": 9467,
    "ण": 9468,
    "त": 9469,
    "थ": 9470,
    "द": 9471,
    "ध": 9472,
    "न": 9473,
    "प": 9474,
    "ब": 9475,
    "भ": 9476,
    "म": 9477,
    "य": 9478,
    "र": 9479,
    "ल": 9480,
    "व": 9481,
    "श": 9482,
    "ष": 9483,
    "स": 9484,
    "ह": 9485,
    "़": 9486,
    "ा": 9487,
    "ि": 9488,
    "ी": 9489,
    "ु": 9490,
    "ू": 9491,
    "े": 9492,
    "ै": 9493,
    "ो": 9494,
    "्": 9495,
    "।": 9496,
    "ক": 9497,
    "গ": 9498,
    "জ": 9499,
    "ত": 9500,
    "দ": 9501,
    "ন": 9502,
    "প": 9503,
    "ব": 9504,
    "ম": 9505,
    "য": 9506,
    "র": 9507,
    "ল": 9508,
    "শ": 9509,
    "স": 9510,
    "হ": 9511,
    "়": 9512,
    "া": 9513,
    "ি": 9514,
    "ী": 9515,
    "ু": 9516,
    "ে": 9517,
    "ো": 9518,
    "্": 9519,
    "ਂ": 9520,
    "ਤ": 9521,
    "ਨ": 9522,
    "ਰ": 9523,
    "ਲ": 9524,
    "ਸ": 9525,
    "ਾ": 9526,
    "ਿ": 9527,
    "ੀ": 9528,
    "ੇ": 9529,
    "ੋ": 9530,
    "ੰ": 9531,
    "ા": 9532,
    "ે": 9533,
    "க": 9534,
    "ச": 9535,
    "ட": 9536,
    "த": 9537,
    "ந": 9538,
    "ன": 9539,
    "ப": 9540,
    "ம": 9541,
    "ய": 9542,
    "ர": 9543,
    "ற": 9544,
    "ல": 9545,
    "ள": 9546,
    "வ": 9547,
    "ா": 9548,
    "ி": 9549,
    "ு": 9550,
    "ை": 9551,
    "்": 9552,
    "ర": 9553,
    "ా": 9554,
    "ి": 9555,
    "ు": 9556,
    "్": 9557,
    "ರ": 9558,
    "್": 9559,
    "ം": 9560,
    "അ": 9561,
    "എ": 9562,
    "ക": 9563,
    "ങ": 9564,
    "ച": 9565,
    "ഞ": 9566,
    "ട": 9567,
    "ണ": 9568,
    "ത": 9569,
    "ദ": 9570,
    "ന": 9571,
    "പ": 9572,
    "മ": 9573,
    "യ": 9574,
    "ര": 9575,
    "റ": 9576,
    "ല": 9577,
    "ള": 9578,
    "വ": 9579,
    "ശ": 9580,
    "ഷ": 9581,
    "സ": 9582,
    "ാ": 9583,
    "ി": 9584,
    "ു": 9585,
    "െ": 9586,
    "േ": 9587,
    "്": 9588,
    "ൻ": 9589,
    "ർ": 9590,
    "ൽ": 9591,
    "ൾ": 9592,
    "ක": 9593,
    "න": 9594,
    "ම": 9595,
    "ර": 9596,
    "ව": 9597,
    "්": 9598,
    "ා": 9599,
    "ි": 9600,
    "ก": 9601,
    "ข": 9602,
    "ค": 9603,
    "ง": 9604,
    "จ": 9605,
    "ช": 9606,
    "ญ": 9607,
    "ณ": 9608,
    "ด": 9609,
    "ต": 9610,
    "ถ": 9611,
    "ท": 9612,
    "ธ": 9613,
    "น": 9614,
    "บ": 9615,
    "ป": 9616,
    "ผ": 9617,
    "พ": 9618,
    "ภ": 9619,
    "ม": 9620,
    "ย": 9621,
    "ร": 9622,
    "ล": 9623,
    "ว": 9624,
    "ศ": 9625,
    "ษ": 9626,
    "ส": 9627,
    "ห": 9628,
    "อ": 9629,
    "ะ": 9630,
    "ั": 9631,
    "า": 9632,
    "ำ": 9633,
    "ิ": 9634,
    "ี": 9635,
    "ื": 9636,
    "ุ": 9637,
    "ู": 9638,
    "เ": 9639,
    "แ": 9640,
    "โ": 9641,
    "ใ": 9642,
    "ไ": 9643,
    "็": 9644,
    "่": 9645,
    "้": 9646,
    "์": 9647,
    "๑": 9648,
    "་": 9649,
    "ག": 9650,
    "ང": 9651,
    "ད": 9652,
    "ན": 9653,
    "བ": 9654,
    "མ": 9655,
    "ར": 9656,
    "ལ": 9657,
    "ས": 9658,
    "ི": 9659,
    "ུ": 9660,
    "ེ": 9661,
    "ོ": 9662,
    "ྱ": 9663,
    "က": 9664,
    "င": 9665,
    "တ": 9666,
    "န": 9667,
    "ပ": 9668,
    "မ": 9669,
    "ရ": 9670,
    "သ": 9671,
    "ာ": 9672,
    "ိ": 9673,
    "ု": 9674,
    "ေ": 9675,
    "း": 9676,
    "်": 9677,
    "ြ": 9678,
    "ა": 9679,
    "ბ": 9680,
    "გ": 9681,
    "დ": 9682,
    "ე": 9683,
    "ვ": 9684,
    "ზ": 9685,
    "თ": 9686,
    "ი": 9687,
    "კ": 9688,
    "ლ": 9689,
    "მ": 9690,
    "ნ": 9691,
    "ო": 9692,
    "პ": 9693,
    "რ": 9694,
    "ს": 9695,
    "ტ": 9696,
    "უ": 9697,
    "ფ": 9698,
    "ქ": 9699,
    "შ": 9700,
    "ც": 9701,
    "ძ": 9702,
    "ხ": 9703,
    "ក": 9704,
    "ន": 9705,
    "រ": 9706,
    "ស": 9707,
    "ា": 9708,
    "្": 9709,
    "ᴇ": 9710,
    "ᵉ": 9711,
    "ḍ": 9712,
    "ḏ": 9713,
    "Ḥ": 9714,
    "ḥ": 9715,
    "Ḩ": 9716,
    "ḩ": 9717,
    "Ḫ": 9718,
    "ḫ": 9719,
    "ḳ": 9720,
    "ḷ": 9721,
    "ṃ": 9722,
    "ṅ": 9723,
    "ṇ": 9724,
    "ṛ": 9725,
    "Ṣ": 9726,
    "ṣ": 9727,
    "Ṭ": 9728,
    "ṭ": 9729,
    "ṯ": 9730,
    "ẓ": 9731,
    "ạ": 9732,
    "ả": 9733,
    "ấ": 9734,
    "ầ": 9735,
    "ẩ": 9736,
    "ẫ": 9737,
    "ậ": 9738,
    "ắ": 9739,
    "ằ": 9740,
    "ặ": 9741,
    "ẹ": 9742,
    "ẻ": 9743,
    "ẽ": 9744,
    "ế": 9745,
    "ề": 9746,
    "ể": 9747,
    "ễ": 9748,
    "ệ": 9749,
    "ỉ": 9750,
    "ị": 9751,
    "ọ": 9752,
    "ỏ": 9753,
    "ố": 9754,
    "ồ": 9755,
    "ổ": 9756,
    "ỗ": 9757,
    "ộ": 9758,
    "ớ": 9759,
    "ờ": 9760,
    "ở": 9761,
    "ợ": 9762,
    "ụ": 9763,
    "ủ": 9764,
    "ứ": 9765,
    "ừ": 9766,
    "ử": 9767,
    "ữ": 9768,
    "ự": 9769,
    "ỳ": 9770,
    "ỹ": 9771,
    "ἀ": 9772,
    "ἄ": 9773,
    "Ἀ": 9774,
    "ἐ": 9775,
    "ἔ": 9776,
    "Ἐ": 9777,
    "ἡ": 9778,
    "ἰ": 9779,
    "ἱ": 9780,
    "Ἰ": 9781,
    "ὀ": 9782,
    "ὁ": 9783,
    "ὐ": 9784,
    "ὑ": 9785,
    "ὰ": 9786,
    "ά": 9787,
    "ὲ": 9788,
    "έ": 9789,
    "ὴ": 9790,
    "ή": 9791,
    "ὶ": 9792,
    "ί": 9793,
    "ὸ": 9794,
    "ό": 9795,
    "ὺ": 9796,
    "ύ": 9797,
    "ᾶ": 9798,
    "ῆ": 9799,
    "ῖ": 9800,
    "ῥ": 9801,
    "ῦ": 9802,
    "ῶ": 9803,
    "\\u2002": 9804,
    "\\u2003": 9805,
    "\\u2009": 9806,
    "\\u200a": 9807,
    "\\u200b": 9808,
    "\\u200c": 9809,
    "\\u200d": 9810,
    "\\u200e": 9811,
    "‐": 9812,
    "‑": 9813,
    "‒": 9814,
    "–": 9815,
    "—": 9816,
    "―": 9817,
    "‖": 9818,
    "‘": 9819,
    "’": 9820,
    "‚": 9821,
    "“": 9822,
    "”": 9823,
    "„": 9824,
    "‟": 9825,
    "†": 9826,
    "‡": 9827,
    "•": 9828,
    "‥": 9829,
    "…": 9830,
    "‧": 9831,
    "\\u202c": 9832,
    "\\u202f": 9833,
    "‰": 9834,
    "′": 9835,
    "″": 9836,
    "‵": 9837,
    "‹": 9838,
    "›": 9839,
    "※": 9840,
    "‾": 9841,
    "⁄": 9842,
    "⁰": 9843,
    "⁴": 9844,
    "⁵": 9845,
    "⁶": 9846,
    "⁷": 9847,
    "⁸": 9848,
    "⁹": 9849,
    "⁻": 9850,
    "ⁿ": 9851,
    "₀": 9852,
    "₁": 9853,
    "₂": 9854,
    "₃": 9855,
    "₄": 9856,
    "₅": 9857,
    "₆": 9858,
    "₇": 9859,
    "₈": 9860,
    "₉": 9861,
    "ₗ": 9862,
    "€": 9863,
    "₹": 9864,
    "ℂ": 9865,
    "℃": 9866,
    "℉": 9867,
    "ℓ": 9868,
    "ℕ": 9869,
    "№": 9870,
    "ℚ": 9871,
    "ℝ": 9872,
    "™": 9873,
    "ℤ": 9874,
    "⅓": 9875,
    "Ⅰ": 9876,
    "Ⅱ": 9877,
    "Ⅲ": 9878,
    "Ⅳ": 9879,
    "Ⅴ": 9880,
    "Ⅵ": 9881,
    "Ⅶ": 9882,
    "Ⅷ": 9883,
    "Ⅸ": 9884,
    "Ⅹ": 9885,
    "←": 9886,
    "↑": 9887,
    "→": 9888,
    "↓": 9889,
    "↔": 9890,
    "↖": 9891,
    "↗": 9892,
    "↘": 9893,
    "↙": 9894,
    "↲": 9895,
    "↳": 9896,
    "↵": 9897,
    "⇒": 9898,
    "⇔": 9899,
    "∀": 9900,
    "∂": 9901,
    "∃": 9902,
    "∅": 9903,
    "∆": 9904,
    "∇": 9905,
    "∈": 9906,
    "∉": 9907,
    "∑": 9908,
    "−": 9909,
    "∕": 9910,
    "∗": 9911,
    "∘": 9912,
    "∙": 9913,
    "√": 9914,
    "∞": 9915,
    "∠": 9916,
    "∣": 9917,
    "∥": 9918,
    "∧": 9919,
    "∨": 9920,
    "∩": 9921,
    "∪": 9922,
    "∫": 9923,
    "∮": 9924,
    "∴": 9925,
    "∶": 9926,
    "∷": 9927,
    "∼": 9928,
    "∽": 9929,
    "≃": 9930,
    "≈": 9931,
    "≠": 9932,
    "≡": 9933,
    "≤": 9934,
    "≥": 9935,
    "≦": 9936,
    "≧": 9937,
    "≫": 9938,
    "≯": 9939,
    "⊂": 9940,
    "⊆": 9941,
    "⊕": 9942,
    "⊗": 9943,
    "⊙": 9944,
    "⊢": 9945,
    "⊤": 9946,
    "⊥": 9947,
    "⋅": 9948,
    "⋯": 9949,
    "⌒": 9950,
    "⌘": 9951,
    "⍵": 9952,
    "①": 9953,
    "②": 9954,
    "③": 9955,
    "④": 9956,
    "⑤": 9957,
    "⑥": 9958,
    "⑦": 9959,
    "⑧": 9960,
    "⑨": 9961,
    "Ⓔ": 9962,
    "Ⓝ": 9963,
    "Ⓢ": 9964,
    "Ⓦ": 9965,
    "─": 9966,
    "━": 9967,
    "│": 9968,
    "┃": 9969,
    "┄": 9970,
    "┅": 9971,
    "┈": 9972,
    "┉": 9973,
    "┌": 9974,
    "┍": 9975,
    "┏": 9976,
    "┐": 9977,
    "┑": 9978,
    "┓": 9979,
    "└": 9980,
    "┗": 9981,
    "┘": 9982,
    "┛": 9983,
    "├": 9984,
    "┤": 9985,
    "┬": 9986,
    "┭": 9987,
    "┮": 9988,
    "┳": 9989,
    "┴": 9990,
    "┻": 9991,
    "┼": 9992,
    "╌": 9993,
    "═": 9994,
    "║": 9995,
    "╔": 9996,
    "╗": 9997,
    "╚": 9998,
    "╝": 9999,
    "╠": 10000,
    "╣": 10001,
    "╥": 10002,
    "╦": 10003,
    "╩": 10004,
    "╬": 10005,
    "╭": 10006,
    "╮": 10007,
    "╯": 10008,
    "╰": 10009,
    "╲": 10010,
    "▀": 10011,
    "▂": 10012,
    "▄": 10013,
    "▇": 10014,
    "█": 10015,
    "▍": 10016,
    "░": 10017,
    "▒": 10018,
    "▓": 10019,
    "▔": 10020,
    "■": 10021,
    "□": 10022,
    "▪": 10023,
    "▬": 10024,
    "▲": 10025,
    "△": 10026,
    "▶": 10027,
    "▸": 10028,
    "►": 10029,
    "▼": 10030,
    "▽": 10031,
    "◄": 10032,
    "◆": 10033,
    "◇": 10034,
    "○": 10035,
    "◎": 10036,
    "●": 10037,
    "◢": 10038,
    "◦": 10039,
    "★": 10040,
    "☆": 10041,
    "☉": 10042,
    "☴": 10043,
    "☺": 10044,
    "♀": 10045,
    "♂": 10046,
    "♠": 10047,
    "♡": 10048,
    "♣": 10049,
    "♥": 10050,
    "♦": 10051,
    "♪": 10052,
    "♭": 10053,
    "♯": 10054,
    "⚭": 10055,
    "✅": 10056,
    "✓": 10057,
    "✔": 10058,
    "✨": 10059,
    "✿": 10060,
    "❤": 10061,
    "❯": 10062,
    "❶": 10063,
    "❷": 10064,
    "❸": 10065,
    "➖": 10066,
    "➜": 10067,
    "⟨": 10068,
    "⟩": 10069,
    "⟶": 10070,
    "⠀": 10071,
    "⣿": 10072,
    "⥤": 10073,
    "⬛": 10074,
    "⭐": 10075,
    "ⴰ": 10076,
    "⸮": 10077,
    "\\u3000": 10078,
    "、": 10079,
    "。": 10080,
    "〃": 10081,
    "々": 10082,
    "〇": 10083,
    "〈": 10084,
    "〉": 10085,
    "《": 10086,
    "》": 10087,
    "「": 10088,
    "」": 10089,
    "『": 10090,
    "』": 10091,
    "【": 10092,
    "】": 10093,
    "〒": 10094,
    "〔": 10095,
    "〕": 10096,
    "〖": 10097,
    "〗": 10098,
    "〜": 10099,
    "〝": 10100,
    "〞": 10101,
    "あ": 10102,
    "い": 10103,
    "う": 10104,
    "え": 10105,
    "お": 10106,
    "か": 10107,
    "が": 10108,
    "き": 10109,
    "ぎ": 10110,
    "く": 10111,
    "ぐ": 10112,
    "け": 10113,
    "げ": 10114,
    "こ": 10115,
    "ご": 10116,
    "さ": 10117,
    "ざ": 10118,
    "し": 10119,
    "じ": 10120,
    "す": 10121,
    "ず": 10122,
    "せ": 10123,
    "そ": 10124,
    "た": 10125,
    "だ": 10126,
    "ち": 10127,
    "っ": 10128,
    "つ": 10129,
    "づ": 10130,
    "て": 10131,
    "で": 10132,
    "と": 10133,
    "ど": 10134,
    "な": 10135,
    "に": 10136,
    "ね": 10137,
    "の": 10138,
    "は": 10139,
    "ば": 10140,
    "ひ": 10141,
    "び": 10142,
    "ふ": 10143,
    "ぶ": 10144,
    "へ": 10145,
    "べ": 10146,
    "ほ": 10147,
    "ま": 10148,
    "み": 10149,
    "む": 10150,
    "め": 10151,
    "も": 10152,
    "ゃ": 10153,
    "や": 10154,
    "ゆ": 10155,
    "ょ": 10156,
    "よ": 10157,
    "ら": 10158,
    "り": 10159,
    "る": 10160,
    "れ": 10161,
    "ろ": 10162,
    "わ": 10163,
    "を": 10164,
    "ん": 10165,
    "ァ": 10166,
    "ア": 10167,
    "ィ": 10168,
    "イ": 10169,
    "ウ": 10170,
    "ェ": 10171,
    "エ": 10172,
    "ォ": 10173,
    "オ": 10174,
    "カ": 10175,
    "ガ": 10176,
    "キ": 10177,
    "ギ": 10178,
    "ク": 10179,
    "グ": 10180,
    "ケ": 10181,
    "ゲ": 10182,
    "コ": 10183,
    "ゴ": 10184,
    "サ": 10185,
    "ザ": 10186,
    "シ": 10187,
    "ジ": 10188,
    "ス": 10189,
    "ズ": 10190,
    "セ": 10191,
    "ゼ": 10192,
    "ソ": 10193,
    "タ": 10194,
    "ダ": 10195,
    "チ": 10196,
    "ッ": 10197,
    "ツ": 10198,
    "テ": 10199,
    "デ": 10200,
    "ト": 10201,
    "ド": 10202,
    "ナ": 10203,
    "ニ": 10204,
    "ネ": 10205,
    "ノ": 10206,
    "ハ": 10207,
    "バ": 10208,
    "パ": 10209,
    "ヒ": 10210,
    "ビ": 10211,
    "ピ": 10212,
    "フ": 10213,
    "ブ": 10214,
    "プ": 10215,
    "ヘ": 10216,
    "ベ": 10217,
    "ペ": 10218,
    "ホ": 10219,
    "ボ": 10220,
    "ポ": 10221,
    "マ": 10222,
    "ミ": 10223,
    "ム": 10224,
    "メ": 10225,
    "モ": 10226,
    "ャ": 10227,
    "ヤ": 10228,
    "ュ": 10229,
    "ユ": 10230,
    "ョ": 10231,
    "ヨ": 10232,
    "ラ": 10233,
    "リ": 10234,
    "ル": 10235,
    "レ": 10236,
    "ロ": 10237,
    "ワ": 10238,
    "ン": 10239,
    "ヴ": 10240,
    "・": 10241,
    "ー": 10242,
    "ㄒ": 10243,
    "ㄚ": 10244,
    "ㄟ": 10245,
    "ㄣ": 10246,
    "ㄧ": 10247,
    "ㄨ": 10248,
    "㎡": 10249,
    "一": 10250,
    "丁": 10251,
    "丂": 10252,
    "七": 10253,
    "万": 10254,
    "丈": 10255,
    "三": 10256,
    "上": 10257,
    "下": 10258,
    "丌": 10259,
    "不": 10260,
    "与": 10261,
    "丐": 10262,
    "丑": 10263,
    "专": 10264,
    "且": 10265,
    "丕": 10266,
    "世": 10267,
    "丘": 10268,
    "丙": 10269,
    "业": 10270,
    "丛": 10271,
    "东": 10272,
    "丝": 10273,
    "丞": 10274,
    "丟": 10275,
    "両": 10276,
    "丢": 10277,
    "两": 10278,
    "严": 10279,
    "並": 10280,
    "丧": 10281,
    "丨": 10282,
    "个": 10283,
    "丫": 10284,
    "中": 10285,
    "丰": 10286,
    "串": 10287,
    "临": 10288,
    "丶": 10289,
    "丸": 10290,
    "丹": 10291,
    "为": 10292,
    "主": 10293,
    "丼": 10294,
    "丽": 10295,
    "举": 10296,
    "丿": 10297,
    "乂": 10298,
    "乃": 10299,
    "乄": 10300,
    "久": 10301,
    "乇": 10302,
    "么": 10303,
    "义": 10304,
    "之": 10305,
    "乌": 10306,
    "乍": 10307,
    "乎": 10308,
    "乏": 10309,
    "乐": 10310,
    "乒": 10311,
    "乓": 10312,
    "乔": 10313,
    "乖": 10314,
    "乗": 10315,
    "乘": 10316,
    "乙": 10317,
    "乛": 10318,
    "乜": 10319,
    "九": 10320,
    "乞": 10321,
    "也": 10322,
    "习": 10323,
    "乡": 10324,
    "书": 10325,
    "乩": 10326,
    "买": 10327,
    "乱": 10328,
    "乳": 10329,
    "乾": 10330,
    "亀": 10331,
    "亂": 10332,
    "了": 10333,
    "予": 10334,
    "争": 10335,
    "事": 10336,
    "二": 10337,
    "亍": 10338,
    "于": 10339,
    "亏": 10340,
    "云": 10341,
    "互": 10342,
    "亓": 10343,
    "五": 10344,
    "井": 10345,
    "亘": 10346,
    "亙": 10347,
    "亚": 10348,
    "些": 10349,
    "亜": 10350,
    "亞": 10351,
    "亟": 10352,
    "亡": 10353,
    "亢": 10354,
    "交": 10355,
    "亥": 10356,
    "亦": 10357,
    "产": 10358,
    "亨": 10359,
    "亩": 10360,
    "享": 10361,
    "京": 10362,
    "亭": 10363,
    "亮": 10364,
    "亰": 10365,
    "亲": 10366,
    "亳": 10367,
    "亵": 10368,
    "亶": 10369,
    "人": 10370,
    "亻": 10371,
    "亿": 10372,
    "什": 10373,
    "仁": 10374,
    "仃": 10375,
    "仄": 10376,
    "仅": 10377,
    "仆": 10378,
    "仇": 10379,
    "仉": 10380,
    "今": 10381,
    "介": 10382,
    "仍": 10383,
    "从": 10384,
    "仏": 10385,
    "仑": 10386,
    "仓": 10387,
    "仔": 10388,
    "仕": 10389,
    "他": 10390,
    "仗": 10391,
    "付": 10392,
    "仙": 10393,
    "仝": 10394,
    "仞": 10395,
    "仟": 10396,
    "代": 10397,
    "令": 10398,
    "以": 10399,
    "仨": 10400,
    "仪": 10401,
    "们": 10402,
    "仮": 10403,
    "仰": 10404,
    "仲": 10405,
    "仵": 10406,
    "件": 10407,
    "价": 10408,
    "任": 10409,
    "份": 10410,
    "仿": 10411,
    "企": 10412,
    "伉": 10413,
    "伊": 10414,
    "伍": 10415,
    "伎": 10416,
    "伏": 10417,
    "伐": 10418,
    "休": 10419,
    "众": 10420,
    "优": 10421,
    "伙": 10422,
    "会": 10423,
    "伝": 10424,
    "伞": 10425,
    "伟": 10426,
    "传": 10427,
    "伢": 10428,
    "伤": 10429,
    "伥": 10430,
    "伦": 10431,
    "伪": 10432,
    "伫": 10433,
    "伯": 10434,
    "估": 10435,
    "伱": 10436,
    "伴": 10437,
    "伶": 10438,
    "伸": 10439,
    "伺": 10440,
    "似": 10441,
    "伽": 10442,
    "佃": 10443,
    "但": 10444,
    "佇": 10445,
    "佈": 10446,
    "位": 10447,
    "低": 10448,
    "住": 10449,
    "佐": 10450,
    "佑": 10451,
    "体": 10452,
    "佔": 10453,
    "何": 10454,
    "佗": 10455,
    "佘": 10456,
    "余": 10457,
    "佚": 10458,
    "佛": 10459,
    "作": 10460,
    "佝": 10461,
    "佞": 10462,
    "佟": 10463,
    "你": 10464,
    "佢": 10465,
    "佣": 10466,
    "佤": 10467,
    "佥": 10468,
    "佧": 10469,
    "佩": 10470,
    "佬": 10471,
    "佮": 10472,
    "佯": 10473,
    "佰": 10474,
    "佳": 10475,
    "併": 10476,
    "佶": 10477,
    "佺": 10478,
    "佻": 10479,
    "佼": 10480,
    "佾": 10481,
    "使": 10482,
    "侃": 10483,
    "侄": 10484,
    "來": 10485,
    "侈": 10486,
    "例": 10487,
    "侍": 10488,
    "侏": 10489,
    "侑": 10490,
    "侖": 10491,
    "侗": 10492,
    "侘": 10493,
    "供": 10494,
    "依": 10495,
    "侠": 10496,
    "価": 10497,
    "侣": 10498,
    "侥": 10499,
    "侦": 10500,
    "侧": 10501,
    "侨": 10502,
    "侩": 10503,
    "侬": 10504,
    "侮": 10505,
    "侯": 10506,
    "侵": 10507,
    "侶": 10508,
    "侷": 10509,
    "侽": 10510,
    "便": 10511,
    "係": 10512,
    "促": 10513,
    "俄": 10514,
    "俅": 10515,
    "俆": 10516,
    "俊": 10517,
    "俎": 10518,
    "俏": 10519,
    "俐": 10520,
    "俑": 10521,
    "俗": 10522,
    "俘": 10523,
    "俚": 10524,
    "保": 10525,
    "俞": 10526,
    "俟": 10527,
    "俠": 10528,
    "信": 10529,
    "俢": 10530,
    "俣": 10531,
    "俦": 10532,
    "俨": 10533,
    "俩": 10534,
    "俪": 10535,
    "俬": 10536,
    "俭": 10537,
    "修": 10538,
    "俯": 10539,
    "俱": 10540,
    "俳": 10541,
    "俵": 10542,
    "俶": 10543,
    "俷": 10544,
    "俸": 10545,
    "俺": 10546,
    "俾": 10547,
    "倆": 10548,
    "倉": 10549,
    "個": 10550,
    "倌": 10551,
    "倍": 10552,
    "倏": 10553,
    "們": 10554,
    "倒": 10555,
    "倓": 10556,
    "倔": 10557,
    "倖": 10558,
    "倘": 10559,
    "候": 10560,
    "倚": 10561,
    "倜": 10562,
    "借": 10563,
    "倡": 10564,
    "倢": 10565,
    "倣": 10566,
    "値": 10567,
    "倦": 10568,
    "倨": 10569,
    "倩": 10570,
    "倪": 10571,
    "倫": 10572,
    "倬": 10573,
    "倭": 10574,
    "倶": 10575,
    "债": 10576,
    "值": 10577,
    "倾": 10578,
    "偃": 10579,
    "假": 10580,
    "偈": 10581,
    "偉": 10582,
    "偌": 10583,
    "偎": 10584,
    "偏": 10585,
    "偓": 10586,
    "偕": 10587,
    "做": 10588,
    "停": 10589,
    "健": 10590,
    "偲": 10591,
    "側": 10592,
    "偵": 10593,
    "偶": 10594,
    "偷": 10595,
    "偻": 10596,
    "偽": 10597,
    "偿": 10598,
    "傀": 10599,
    "傅": 10600,
    "傍": 10601,
    "傑": 10602,
    "傕": 10603,
    "傘": 10604,
    "備": 10605,
    "傢": 10606,
    "傣": 10607,
    "傥": 10608,
    "储": 10609,
    "傩": 10610,
    "催": 10611,
    "傭": 10612,
    "傲": 10613,
    "傳": 10614,
    "債": 10615,
    "傷": 10616,
    "傻": 10617,
    "傾": 10618,
    "僅": 10619,
    "働": 10620,
    "像": 10621,
    "僑": 10622,
    "僕": 10623,
    "僖": 10624,
    "僚": 10625,
    "僞": 10626,
    "僥": 10627,
    "僧": 10628,
    "僭": 10629,
    "僮": 10630,
    "僱": 10631,
    "僵": 10632,
    "價": 10633,
    "僻": 10634,
    "儀": 10635,
    "儁": 10636,
    "儂": 10637,
    "億": 10638,
    "儆": 10639,
    "儉": 10640,
    "儋": 10641,
    "儒": 10642,
    "儘": 10643,
    "儚": 10644,
    "償": 10645,
    "儡": 10646,
    "優": 10647,
    "儲": 10648,
    "儷": 10649,
    "儿": 10650,
    "兀": 10651,
    "允": 10652,
    "元": 10653,
    "兄": 10654,
    "充": 10655,
    "兆": 10656,
    "兇": 10657,
    "先": 10658,
    "光": 10659,
    "克": 10660,
    "兌": 10661,
    "免": 10662,
    "兎": 10663,
    "児": 10664,
    "兑": 10665,
    "兒": 10666,
    "兔": 10667,
    "兕": 10668,
    "兖": 10669,
    "党": 10670,
    "兜": 10671,
    "兢": 10672,
    "入": 10673,
    "內": 10674,
    "全": 10675,
    "兩": 10676,
    "八": 10677,
    "公": 10678,
    "六": 10679,
    "兮": 10680,
    "兰": 10681,
    "共": 10682,
    "兲": 10683,
    "关": 10684,
    "兴": 10685,
    "兵": 10686,
    "其": 10687,
    "具": 10688,
    "典": 10689,
    "兹": 10690,
    "养": 10691,
    "兼": 10692,
    "兽": 10693,
    "冀": 10694,
    "冂": 10695,
    "内": 10696,
    "円": 10697,
    "冇": 10698,
    "冈": 10699,
    "冉": 10700,
    "冊": 10701,
    "册": 10702,
    "再": 10703,
    "冏": 10704,
    "冒": 10705,
    "冕": 10706,
    "冗": 10707,
    "写": 10708,
    "军": 10709,
    "农": 10710,
    "冠": 10711,
    "冢": 10712,
    "冤": 10713,
    "冥": 10714,
    "冧": 10715,
    "冨": 10716,
    "冪": 10717,
    "冬": 10718,
    "冯": 10719,
    "冰": 10720,
    "冲": 10721,
    "决": 10722,
    "冴": 10723,
    "况": 10724,
    "冶": 10725,
    "冷": 10726,
    "冻": 10727,
    "冼": 10728,
    "冽": 10729,
    "净": 10730,
    "凃": 10731,
    "凄": 10732,
    "准": 10733,
    "凈": 10734,
    "凉": 10735,
    "凋": 10736,
    "凌": 10737,
    "凍": 10738,
    "减": 10739,
    "凑": 10740,
    "凖": 10741,
    "凛": 10742,
    "凜": 10743,
    "凝": 10744,
    "几": 10745,
    "凡": 10746,
    "凤": 10747,
    "処": 10748,
    "凧": 10749,
    "凪": 10750,
    "凫": 10751,
    "凭": 10752,
    "凯": 10753,
    "凰": 10754,
    "凱": 10755,
    "凳": 10756,
    "凶": 10757,
    "凸": 10758,
    "凹": 10759,
    "出": 10760,
    "击": 10761,
    "函": 10762,
    "凿": 10763,
    "刀": 10764,
    "刁": 10765,
    "刃": 10766,
    "刄": 10767,
    "分": 10768,
    "切": 10769,
    "刈": 10770,
    "刊": 10771,
    "刍": 10772,
    "刎": 10773,
    "刑": 10774,
    "划": 10775,
    "刕": 10776,
    "列": 10777,
    "刘": 10778,
    "则": 10779,
    "刚": 10780,
    "创": 10781,
    "初": 10782,
    "删": 10783,
    "判": 10784,
    "別": 10785,
    "刧": 10786,
    "刨": 10787,
    "利": 10788,
    "刪": 10789,
    "别": 10790,
    "刮": 10791,
    "到": 10792,
    "刳": 10793,
    "制": 10794,
    "刷": 10795,
    "券": 10796,
    "刹": 10797,
    "刺": 10798,
    "刻": 10799,
    "刽": 10800,
    "剁": 10801,
    "剂": 10802,
    "剃": 10803,
    "則": 10804,
    "削": 10805,
    "剋": 10806,
    "剌": 10807,
    "前": 10808,
    "剎": 10809,
    "剐": 10810,
    "剑": 10811,
    "剔": 10812,
    "剖": 10813,
    "剛": 10814,
    "剜": 10815,
    "剝": 10816,
    "剡": 10817,
    "剣": 10818,
    "剤": 10819,
    "剥": 10820,
    "剧": 10821,
    "剩": 10822,
    "剪": 10823,
    "副": 10824,
    "剰": 10825,
    "割": 10826,
    "創": 10827,
    "剷": 10828,
    "剽": 10829,
    "剿": 10830,
    "劃": 10831,
    "劇": 10832,
    "劈": 10833,
    "劉": 10834,
    "劍": 10835,
    "劑": 10836,
    "劔": 10837,
    "力": 10838,
    "劝": 10839,
    "办": 10840,
    "功": 10841,
    "加": 10842,
    "务": 10843,
    "劢": 10844,
    "劣": 10845,
    "动": 10846,
    "助": 10847,
    "努": 10848,
    "劫": 10849,
    "劭": 10850,
    "励": 10851,
    "劲": 10852,
    "劳": 10853,
    "労": 10854,
    "劵": 10855,
    "効": 10856,
    "劼": 10857,
    "劾": 10858,
    "势": 10859,
    "勁": 10860,
    "勃": 10861,
    "勅": 10862,
    "勇": 10863,
    "勉": 10864,
    "勋": 10865,
    "勍": 10866,
    "勐": 10867,
    "勒": 10868,
    "動": 10869,
    "勖": 10870,
    "勘": 10871,
    "務": 10872,
    "勛": 10873,
    "勝": 10874,
    "勞": 10875,
    "募": 10876,
    "勠": 10877,
    "勢": 10878,
    "勣": 10879,
    "勤": 10880,
    "勧": 10881,
    "勰": 10882,
    "勲": 10883,
    "勳": 10884,
    "勵": 10885,
    "勸": 10886,
    "勺": 10887,
    "勻": 10888,
    "勾": 10889,
    "勿": 10890,
    "匀": 10891,
    "匁": 10892,
    "匂": 10893,
    "包": 10894,
    "匆": 10895,
    "匈": 10896,
    "匍": 10897,
    "匏": 10898,
    "匐": 10899,
    "匕": 10900,
    "化": 10901,
    "北": 10902,
    "匙": 10903,
    "匝": 10904,
    "匠": 10905,
    "匡": 10906,
    "匣": 10907,
    "匪": 10908,
    "匮": 10909,
    "匯": 10910,
    "匹": 10911,
    "区": 10912,
    "医": 10913,
    "匾": 10914,
    "匿": 10915,
    "區": 10916,
    "十": 10917,
    "千": 10918,
    "卅": 10919,
    "升": 10920,
    "午": 10921,
    "卉": 10922,
    "半": 10923,
    "卍": 10924,
    "华": 10925,
    "协": 10926,
    "卐": 10927,
    "卑": 10928,
    "卒": 10929,
    "卓": 10930,
    "協": 10931,
    "单": 10932,
    "卖": 10933,
    "南": 10934,
    "単": 10935,
    "博": 10936,
    "卜": 10937,
    "卞": 10938,
    "卟": 10939,
    "占": 10940,
    "卡": 10941,
    "卢": 10942,
    "卣": 10943,
    "卤": 10944,
    "卦": 10945,
    "卧": 10946,
    "卫": 10947,
    "卬": 10948,
    "卮": 10949,
    "卯": 10950,
    "印": 10951,
    "危": 10952,
    "即": 10953,
    "却": 10954,
    "卵": 10955,
    "卷": 10956,
    "卸": 10957,
    "卻": 10958,
    "卽": 10959,
    "卿": 10960,
    "厂": 10961,
    "厄": 10962,
    "厅": 10963,
    "历": 10964,
    "厉": 10965,
    "压": 10966,
    "厌": 10967,
    "厍": 10968,
    "厓": 10969,
    "厕": 10970,
    "厘": 10971,
    "厚": 10972,
    "厝": 10973,
    "原": 10974,
    "厢": 10975,
    "厥": 10976,
    "厦": 10977,
    "厨": 10978,
    "厩": 10979,
    "厭": 10980,
    "厮": 10981,
    "厲": 10982,
    "厳": 10983,
    "厶": 10984,
    "去": 10985,
    "县": 10986,
    "叁": 10987,
    "参": 10988,
    "參": 10989,
    "又": 10990,
    "叉": 10991,
    "及": 10992,
    "友": 10993,
    "双": 10994,
    "反": 10995,
    "収": 10996,
    "发": 10997,
    "叒": 10998,
    "叔": 10999,
    "叕": 11000,
    "取": 11001,
    "受": 11002,
    "变": 11003,
    "叙": 11004,
    "叛": 11005,
    "叟": 11006,
    "叠": 11007,
    "叡": 11008,
    "叢": 11009,
    "口": 11010,
    "古": 11011,
    "句": 11012,
    "另": 11013,
    "叨": 11014,
    "叩": 11015,
    "只": 11016,
    "叫": 11017,
    "召": 11018,
    "叭": 11019,
    "叮": 11020,
    "可": 11021,
    "台": 11022,
    "叱": 11023,
    "史": 11024,
    "右": 11025,
    "叵": 11026,
    "叶": 11027,
    "号": 11028,
    "司": 11029,
    "叹": 11030,
    "叻": 11031,
    "叼": 11032,
    "叽": 11033,
    "吁": 11034,
    "吃": 11035,
    "各": 11036,
    "吆": 11037,
    "合": 11038,
    "吉": 11039,
    "吊": 11040,
    "吋": 11041,
    "同": 11042,
    "名": 11043,
    "后": 11044,
    "吏": 11045,
    "吐": 11046,
    "向": 11047,
    "吒": 11048,
    "吓": 11049,
    "吔": 11050,
    "吕": 11051,
    "吖": 11052,
    "吗": 11053,
    "君": 11054,
    "吝": 11055,
    "吞": 11056,
    "吟": 11057,
    "吠": 11058,
    "吡": 11059,
    "否": 11060,
    "吧": 11061,
    "吨": 11062,
    "吩": 11063,
    "含": 11064,
    "听": 11065,
    "吭": 11066,
    "吮": 11067,
    "启": 11068,
    "吱": 11069,
    "吲": 11070,
    "吳": 11071,
    "吴": 11072,
    "吵": 11073,
    "吶": 11074,
    "吸": 11075,
    "吹": 11076,
    "吻": 11077,
    "吼": 11078,
    "吽": 11079,
    "吾": 11080,
    "吿": 11081,
    "呀": 11082,
    "呂": 11083,
    "呃": 11084,
    "呆": 11085,
    "呈": 11086,
    "呉": 11087,
    "告": 11088,
    "呋": 11089,
    "呎": 11090,
    "呐": 11091,
    "呑": 11092,
    "呓": 11093,
    "呔": 11094,
    "呕": 11095,
    "呖": 11096,
    "呗": 11097,
    "员": 11098,
    "呛": 11099,
    "呜": 11100,
    "呡": 11101,
    "呢": 11102,
    "呤": 11103,
    "呦": 11104,
    "周": 11105,
    "呪": 11106,
    "呯": 11107,
    "呱": 11108,
    "呲": 11109,
    "味": 11110,
    "呵": 11111,
    "呶": 11112,
    "呷": 11113,
    "呸": 11114,
    "呻": 11115,
    "呼": 11116,
    "命": 11117,
    "咀": 11118,
    "咁": 11119,
    "咂": 11120,
    "咄": 11121,
    "咆": 11122,
    "咋": 11123,
    "和": 11124,
    "咎": 11125,
    "咏": 11126,
    "咐": 11127,
    "咒": 11128,
    "咔": 11129,
    "咕": 11130,
    "咖": 11131,
    "咗": 11132,
    "咘": 11133,
    "咙": 11134,
    "咚": 11135,
    "咛": 11136,
    "咝": 11137,
    "咣": 11138,
    "咤": 11139,
    "咥": 11140,
    "咦": 11141,
    "咧": 11142,
    "咨": 11143,
    "咩": 11144,
    "咪": 11145,
    "咫": 11146,
    "咬": 11147,
    "咭": 11148,
    "咯": 11149,
    "咱": 11150,
    "咲": 11151,
    "咳": 11152,
    "咸": 11153,
    "咻": 11154,
    "咽": 11155,
    "咾": 11156,
    "咿": 11157,
    "哀": 11158,
    "品": 11159,
    "哂": 11160,
    "哄": 11161,
    "哆": 11162,
    "哇": 11163,
    "哈": 11164,
    "哉": 11165,
    "哋": 11166,
    "哌": 11167,
    "响": 11168,
    "哎": 11169,
    "哏": 11170,
    "哐": 11171,
    "哑": 11172,
    "哒": 11173,
    "哔": 11174,
    "哗": 11175,
    "哙": 11176,
    "哚": 11177,
    "哝": 11178,
    "哞": 11179,
    "哟": 11180,
    "員": 11181,
    "哥": 11182,
    "哦": 11183,
    "哧": 11184,
    "哨": 11185,
    "哩": 11186,
    "哪": 11187,
    "哭": 11188,
    "哮": 11189,
    "哲": 11190,
    "哺": 11191,
    "哼": 11192,
    "哽": 11193,
    "唁": 11194,
    "唄": 11195,
    "唆": 11196,
    "唇": 11197,
    "唉": 11198,
    "唏": 11199,
    "唐": 11200,
    "唑": 11201,
    "唔": 11202,
    "唛": 11203,
    "唠": 11204,
    "唢": 11205,
    "唤": 11206,
    "唧": 11207,
    "唬": 11208,
    "售": 11209,
    "唯": 11210,
    "唰": 11211,
    "唱": 11212,
    "唳": 11213,
    "唵": 11214,
    "唷": 11215,
    "唸": 11216,
    "唾": 11217,
    "唿": 11218,
    "啃": 11219,
    "啄": 11220,
    "商": 11221,
    "啉": 11222,
    "啊": 11223,
    "問": 11224,
    "啐": 11225,
    "啓": 11226,
    "啕": 11227,
    "啖": 11228,
    "啜": 11229,
    "啞": 11230,
    "啟": 11231,
    "啡": 11232,
    "啤": 11233,
    "啥": 11234,
    "啦": 11235,
    "啧": 11236,
    "啪": 11237,
    "啫": 11238,
    "啬": 11239,
    "啭": 11240,
    "啮": 11241,
    "啰": 11242,
    "啱": 11243,
    "啲": 11244,
    "啵": 11245,
    "啶": 11246,
    "啷": 11247,
    "啸": 11248,
    "啻": 11249,
    "啼": 11250,
    "啾": 11251,
    "喀": 11252,
    "喂": 11253,
    "喃": 11254,
    "善": 11255,
    "喆": 11256,
    "喇": 11257,
    "喉": 11258,
    "喊": 11259,
    "喋": 11260,
    "喎": 11261,
    "喏": 11262,
    "喑": 11263,
    "喔": 11264,
    "喘": 11265,
    "喙": 11266,
    "喚": 11267,
    "喜": 11268,
    "喝": 11269,
    "喟": 11270,
    "喧": 11271,
    "喪": 11272,
    "喫": 11273,
    "喬": 11274,
    "單": 11275,
    "喰": 11276,
    "喱": 11277,
    "喲": 11278,
    "喳": 11279,
    "喵": 11280,
    "営": 11281,
    "喷": 11282,
    "喹": 11283,
    "喺": 11284,
    "喻": 11285,
    "喽": 11286,
    "喾": 11287,
    "嗄": 11288,
    "嗅": 11289,
    "嗆": 11290,
    "嗇": 11291,
    "嗌": 11292,
    "嗎": 11293,
    "嗐": 11294,
    "嗑": 11295,
    "嗒": 11296,
    "嗓": 11297,
    "嗔": 11298,
    "嗖": 11299,
    "嗚": 11300,
    "嗜": 11301,
    "嗝": 11302,
    "嗞": 11303,
    "嗟": 11304,
    "嗡": 11305,
    "嗣": 11306,
    "嗤": 11307,
    "嗥": 11308,
    "嗦": 11309,
    "嗨": 11310,
    "嗪": 11311,
    "嗫": 11312,
    "嗬": 11313,
    "嗮": 11314,
    "嗯": 11315,
    "嗲": 11316,
    "嗳": 11317,
    "嗵": 11318,
    "嗶": 11319,
    "嗷": 11320,
    "嗽": 11321,
    "嘀": 11322,
    "嘁": 11323,
    "嘅": 11324,
    "嘆": 11325,
    "嘈": 11326,
    "嘉": 11327,
    "嘍": 11328,
    "嘎": 11329,
    "嘏": 11330,
    "嘔": 11331,
    "嘖": 11332,
    "嘗": 11333,
    "嘘": 11334,
    "嘚": 11335,
    "嘛": 11336,
    "嘞": 11337,
    "嘟": 11338,
    "嘢": 11339,
    "嘣": 11340,
    "嘤": 11341,
    "嘩": 11342,
    "嘬": 11343,
    "嘭": 11344,
    "嘯": 11345,
    "嘰": 11346,
    "嘱": 11347,
    "嘲": 11348,
    "嘴": 11349,
    "嘶": 11350,
    "嘸": 11351,
    "嘹": 11352,
    "嘻": 11353,
    "嘿": 11354,
    "噁": 11355,
    "噂": 11356,
    "噌": 11357,
    "噎": 11358,
    "噓": 11359,
    "噔": 11360,
    "噗": 11361,
    "噘": 11362,
    "噙": 11363,
    "噛": 11364,
    "噜": 11365,
    "噠": 11366,
    "噢": 11367,
    "噤": 11368,
    "器": 11369,
    "噩": 11370,
    "噪": 11371,
    "噫": 11372,
    "噬": 11373,
    "噱": 11374,
    "噴": 11375,
    "噶": 11376,
    "噸": 11377,
    "噹": 11378,
    "噺": 11379,
    "噻": 11380,
    "噼": 11381,
    "嚀": 11382,
    "嚅": 11383,
    "嚇": 11384,
    "嚎": 11385,
    "嚏": 11386,
    "嚐": 11387,
    "嚓": 11388,
    "嚕": 11389,
    "嚜": 11390,
    "嚟": 11391,
    "嚢": 11392,
    "嚣": 11393,
    "嚥": 11394,
    "嚭": 11395,
    "嚮": 11396,
    "嚯": 11397,
    "嚴": 11398,
    "嚶": 11399,
    "嚷": 11400,
    "嚼": 11401,
    "囁": 11402,
    "囂": 11403,
    "囉": 11404,
    "囊": 11405,
    "囍": 11406,
    "囑": 11407,
    "囔": 11408,
    "囗": 11409,
    "囘": 11410,
    "囚": 11411,
    "四": 11412,
    "囝": 11413,
    "回": 11414,
    "囟": 11415,
    "因": 11416,
    "囡": 11417,
    "团": 11418,
    "団": 11419,
    "囤": 11420,
    "囧": 11421,
    "囫": 11422,
    "园": 11423,
    "囮": 11424,
    "囯": 11425,
    "困": 11426,
    "囱": 11427,
    "囲": 11428,
    "図": 11429,
    "围": 11430,
    "囵": 11431,
    "囷": 11432,
    "囹": 11433,
    "固": 11434,
    "国": 11435,
    "图": 11436,
    "囿": 11437,
    "圃": 11438,
    "圄": 11439,
    "圆": 11440,
    "圈": 11441,
    "圉": 11442,
    "國": 11443,
    "圍": 11444,
    "圏": 11445,
    "園": 11446,
    "圓": 11447,
    "圖": 11448,
    "團": 11449,
    "圜": 11450,
    "土": 11451,
    "圣": 11452,
    "圧": 11453,
    "在": 11454,
    "圩": 11455,
    "圪": 11456,
    "圭": 11457,
    "圮": 11458,
    "地": 11459,
    "圳": 11460,
    "场": 11461,
    "圻": 11462,
    "圾": 11463,
    "址": 11464,
    "坂": 11465,
    "均": 11466,
    "坊": 11467,
    "坍": 11468,
    "坎": 11469,
    "坏": 11470,
    "坐": 11471,
    "坑": 11472,
    "块": 11473,
    "坚": 11474,
    "坛": 11475,
    "坜": 11476,
    "坝": 11477,
    "坞": 11478,
    "坟": 11479,
    "坠": 11480,
    "坡": 11481,
    "坤": 11482,
    "坦": 11483,
    "坨": 11484,
    "坪": 11485,
    "坭": 11486,
    "坯": 11487,
    "坳": 11488,
    "坵": 11489,
    "坶": 11490,
    "坷": 11491,
    "垂": 11492,
    "垃": 11493,
    "垄": 11494,
    "垅": 11495,
    "型": 11496,
    "垌": 11497,
    "垒": 11498,
    "垓": 11499,
    "垚": 11500,
    "垛": 11501,
    "垟": 11502,
    "垠": 11503,
    "垡": 11504,
    "垢": 11505,
    "垣": 11506,
    "垦": 11507,
    "垩": 11508,
    "垫": 11509,
    "垭": 11510,
    "垮": 11511,
    "垵": 11512,
    "埂": 11513,
    "埃": 11514,
    "埋": 11515,
    "埌": 11516,
    "城": 11517,
    "埒": 11518,
    "埔": 11519,
    "埕": 11520,
    "埗": 11521,
    "埙": 11522,
    "埜": 11523,
    "域": 11524,
    "埠": 11525,
    "埤": 11526,
    "埭": 11527,
    "埴": 11528,
    "埵": 11529,
    "執": 11530,
    "埸": 11531,
    "培": 11532,
    "基": 11533,
    "埼": 11534,
    "堀": 11535,
    "堂": 11536,
    "堃": 11537,
    "堅": 11538,
    "堆": 11539,
    "堇": 11540,
    "堑": 11541,
    "堔": 11542,
    "堕": 11543,
    "堡": 11544,
    "堤": 11545,
    "堪": 11546,
    "堯": 11547,
    "堰": 11548,
    "報": 11549,
    "場": 11550,
    "堵": 11551,
    "堺": 11552,
    "塀": 11553,
    "塁": 11554,
    "塊": 11555,
    "塌": 11556,
    "塍": 11557,
    "塑": 11558,
    "塔": 11559,
    "塗": 11560,
    "塘": 11561,
    "塙": 11562,
    "塚": 11563,
    "塞": 11564,
    "塢": 11565,
    "塩": 11566,
    "填": 11567,
    "塬": 11568,
    "塭": 11569,
    "塱": 11570,
    "塵": 11571,
    "塾": 11572,
    "墀": 11573,
    "境": 11574,
    "墅": 11575,
    "墉": 11576,
    "墊": 11577,
    "墒": 11578,
    "墓": 11579,
    "増": 11580,
    "墘": 11581,
    "墙": 11582,
    "墜": 11583,
    "增": 11584,
    "墟": 11585,
    "墨": 11586,
    "墩": 11587,
    "墮": 11588,
    "墳": 11589,
    "墻": 11590,
    "墾": 11591,
    "壁": 11592,
    "壅": 11593,
    "壇": 11594,
    "壊": 11595,
    "壌": 11596,
    "壑": 11597,
    "壓": 11598,
    "壕": 11599,
    "壘": 11600,
    "壞": 11601,
    "壟": 11602,
    "壢": 11603,
    "壤": 11604,
    "壩": 11605,
    "士": 11606,
    "壬": 11607,
    "壮": 11608,
    "壯": 11609,
    "声": 11610,
    "壱": 11611,
    "売": 11612,
    "壳": 11613,
    "壶": 11614,
    "壷": 11615,
    "壹": 11616,
    "壺": 11617,
    "壼": 11618,
    "壽": 11619,
    "夂": 11620,
    "处": 11621,
    "备": 11622,
    "変": 11623,
    "夋": 11624,
    "夌": 11625,
    "复": 11626,
    "夏": 11627,
    "夔": 11628,
    "夕": 11629,
    "外": 11630,
    "夙": 11631,
    "多": 11632,
    "夜": 11633,
    "够": 11634,
    "夠": 11635,
    "夢": 11636,
    "夥": 11637,
    "大": 11638,
    "天": 11639,
    "太": 11640,
    "夫": 11641,
    "夭": 11642,
    "央": 11643,
    "夯": 11644,
    "失": 11645,
    "夲": 11646,
    "头": 11647,
    "夷": 11648,
    "夸": 11649,
    "夹": 11650,
    "夺": 11651,
    "夾": 11652,
    "奁": 11653,
    "奂": 11654,
    "奄": 11655,
    "奇": 11656,
    "奈": 11657,
    "奉": 11658,
    "奋": 11659,
    "奎": 11660,
    "奏": 11661,
    "契": 11662,
    "奔": 11663,
    "奕": 11664,
    "奖": 11665,
    "套": 11666,
    "奘": 11667,
    "奚": 11668,
    "奠": 11669,
    "奡": 11670,
    "奢": 11671,
    "奥": 11672,
    "奧": 11673,
    "奨": 11674,
    "奪": 11675,
    "奬": 11676,
    "奭": 11677,
    "奮": 11678,
    "女": 11679,
    "奴": 11680,
    "奶": 11681,
    "奷": 11682,
    "奸": 11683,
    "她": 11684,
    "好": 11685,
    "妁": 11686,
    "如": 11687,
    "妃": 11688,
    "妄": 11689,
    "妆": 11690,
    "妇": 11691,
    "妈": 11692,
    "妊": 11693,
    "妍": 11694,
    "妏": 11695,
    "妒": 11696,
    "妓": 11697,
    "妖": 11698,
    "妗": 11699,
    "妘": 11700,
    "妙": 11701,
    "妝": 11702,
    "妞": 11703,
    "妡": 11704,
    "妣": 11705,
    "妤": 11706,
    "妥": 11707,
    "妧": 11708,
    "妨": 11709,
    "妩": 11710,
    "妪": 11711,
    "妫": 11712,
    "妬": 11713,
    "妮": 11714,
    "妯": 11715,
    "妲": 11716,
    "妳": 11717,
    "妹": 11718,
    "妺": 11719,
    "妻": 11720,
    "妾": 11721,
    "姀": 11722,
    "姆": 11723,
    "姉": 11724,
    "姊": 11725,
    "始": 11726,
    "姌": 11727,
    "姍": 11728,
    "姐": 11729,
    "姑": 11730,
    "姒": 11731,
    "姓": 11732,
    "委": 11733,
    "姗": 11734,
    "姘": 11735,
    "姚": 11736,
    "姜": 11737,
    "姝": 11738,
    "姣": 11739,
    "姥": 11740,
    "姦": 11741,
    "姨": 11742,
    "姪": 11743,
    "姫": 11744,
    "姬": 11745,
    "姮": 11746,
    "姳": 11747,
    "姵": 11748,
    "姹": 11749,
    "姻": 11750,
    "姽": 11751,
    "姿": 11752,
    "威": 11753,
    "娃": 11754,
    "娄": 11755,
    "娅": 11756,
    "娆": 11757,
    "娇": 11758,
    "娈": 11759,
    "娉": 11760,
    "娌": 11761,
    "娑": 11762,
    "娓": 11763,
    "娘": 11764,
    "娛": 11765,
    "娜": 11766,
    "娟": 11767,
    "娠": 11768,
    "娣": 11769,
    "娥": 11770,
    "娩": 11771,
    "娪": 11772,
    "娰": 11773,
    "娱": 11774,
    "娲": 11775,
    "娴": 11776,
    "娶": 11777,
    "娼": 11778,
    "婀": 11779,
    "婁": 11780,
    "婆": 11781,
    "婉": 11782,
    "婊": 11783,
    "婕": 11784,
    "婚": 11785,
    "婠": 11786,
    "婢": 11787,
    "婥": 11788,
    "婦": 11789,
    "婧": 11790,
    "婪": 11791,
    "婬": 11792,
    "婭": 11793,
    "婳": 11794,
    "婴": 11795,
    "婵": 11796,
    "婶": 11797,
    "婷": 11798,
    "婺": 11799,
    "婻": 11800,
    "婼": 11801,
    "婿": 11802,
    "媃": 11803,
    "媄": 11804,
    "媒": 11805,
    "媓": 11806,
    "媗": 11807,
    "媚": 11808,
    "媛": 11809,
    "媞": 11810,
    "媪": 11811,
    "媱": 11812,
    "媲": 11813,
    "媳": 11814,
    "媽": 11815,
    "媾": 11816,
    "嫁": 11817,
    "嫂": 11818,
    "嫃": 11819,
    "嫆": 11820,
    "嫉": 11821,
    "嫌": 11822,
    "嫒": 11823,
    "嫔": 11824,
    "嫖": 11825,
    "嫚": 11826,
    "嫡": 11827,
    "嫣": 11828,
    "嫤": 11829,
    "嫦": 11830,
    "嫩": 11831,
    "嫪": 11832,
    "嫮": 11833,
    "嫰": 11834,
    "嫱": 11835,
    "嫲": 11836,
    "嫻": 11837,
    "嬅": 11838,
    "嬉": 11839,
    "嬌": 11840,
    "嬗": 11841,
    "嬛": 11842,
    "嬢": 11843,
    "嬤": 11844,
    "嬪": 11845,
    "嬬": 11846,
    "嬰": 11847,
    "嬲": 11848,
    "嬴": 11849,
    "嬷": 11850,
    "嬸": 11851,
    "嬿": 11852,
    "孀": 11853,
    "孃": 11854,
    "子": 11855,
    "孑": 11856,
    "孔": 11857,
    "孕": 11858,
    "孖": 11859,
    "字": 11860,
    "存": 11861,
    "孙": 11862,
    "孚": 11863,
    "孛": 11864,
    "孜": 11865,
    "孝": 11866,
    "孟": 11867,
    "孢": 11868,
    "季": 11869,
    "孤": 11870,
    "学": 11871,
    "孩": 11872,
    "孪": 11873,
    "孫": 11874,
    "孬": 11875,
    "孰": 11876,
    "孱": 11877,
    "孳": 11878,
    "孵": 11879,
    "學": 11880,
    "孺": 11881,
    "孽": 11882,
    "宀": 11883,
    "宁": 11884,
    "它": 11885,
    "宅": 11886,
    "宇": 11887,
    "守": 11888,
    "安": 11889,
    "宋": 11890,
    "完": 11891,
    "宍": 11892,
    "宏": 11893,
    "宓": 11894,
    "宕": 11895,
    "宗": 11896,
    "官": 11897,
    "宙": 11898,
    "定": 11899,
    "宛": 11900,
    "宜": 11901,
    "宝": 11902,
    "实": 11903,
    "実": 11904,
    "宠": 11905,
    "审": 11906,
    "客": 11907,
    "宣": 11908,
    "室": 11909,
    "宥": 11910,
    "宦": 11911,
    "宪": 11912,
    "宫": 11913,
    "宬": 11914,
    "宮": 11915,
    "宰": 11916,
    "害": 11917,
    "宴": 11918,
    "宵": 11919,
    "家": 11920,
    "宸": 11921,
    "容": 11922,
    "宽": 11923,
    "宾": 11924,
    "宿": 11925,
    "寀": 11926,
    "寂": 11927,
    "寄": 11928,
    "寅": 11929,
    "密": 11930,
    "寇": 11931,
    "富": 11932,
    "寐": 11933,
    "寒": 11934,
    "寓": 11935,
    "寔": 11936,
    "寛": 11937,
    "寝": 11938,
    "寞": 11939,
    "察": 11940,
    "寡": 11941,
    "寢": 11942,
    "寤": 11943,
    "寥": 11944,
    "實": 11945,
    "寧": 11946,
    "寨": 11947,
[...]
